[PAD]
[CLS]
[SEP]
[MASK]
[UNK]
!
"
#
$
%
&
'
)
*
+
,
-
.
/
0
1
2
3
4
5
6
7
8
9
:
;
<
=
>
?
[
]
^
_
`
a
b
c
d
e
f
g
h
i
j
k
l
m
n
o
p
q
r
s
t
u
v
w
x
y
z
{
|
}
~
£
«
¹
à
á
â
ä
ç
è
é
ê
í
ñ
ó
õ
ù
ú
û
##u
##r
##p
##i
##s
##n
##g
##c
##o
##t
##h
##a
##l
##y
##d
##e
##w
##v
##m
##k
##b
##f
##x
##í
##z
##7
##j
##9
##1
##6
##q
##4
##0
##8
##à
##2
##5
##3
##ä
##ç
##ñ
##é
##è
##ó
##á
##û
##ê
##¹
##â
##õ
##ú
##ù
##ou
th
you
##er
##in
##at
the
##an
##on
wh
##ing
to
##ll
##re
##en
##or
it
##ow
##es
##is
##ot
an
##ea
##ed
what
##et
##it
##om
that
ha
##ve
we
##ay
##ere
me
##st
##ut
do
in
he
be
##id
of
##ar
is
go
##gh
re
and
on
##ld
##as
sh
##se
don
##ke
##le
##ck
kn
##ght
this
not
know
no
##im
st
for
li
your
was
##al
have
are
##ch
##ust
##ver
my
##ight
##ce
##ould
##ant
##ome
can
##ee
##am
##ir
##oo
did
##ill
##out
##ith
so
ab
but
just
with
ne
get
##ent
##ly
they
##ink
want
how
about
##ur
like
all
##ct
##ad
##od
there
##hing
got
##ter
##ri
think
ll
she
##ion
##ry
su
here
if
as
out
##ear
ch
##her
##ell
##all
##nd
well
ve
##ie
##pp
##ake
why
##ook
##one
up
any
at
rea
him
who
##op
##ic
##and
pl
##ra
yes
see
oh
one
##un
right
wor
al
going
look
say
##ro
now
some
##ack
yea
##ore
yeah
##ind
##est
##us
her
sa
tell
where
fr
would
good
##il
##ess
man
##alk
ever
lo
##ive
##uck
gu
##ist
##ain
##ge
##ul
##ig
ex
##ame
##ong
us
didn
tim
mean
when
could
come
been
were
##art
##if
se
som
let
talk
##ate
or
somet
##ast
##na
##os
##ven
com
will
##end
##ol
ca
##lly
##ine
than
thing
may
time
from
mr
de
ma
##way
ok
##our
##ound
am
##ble
sp
back
had
##ice
too
##ers
his
tw
cl
##itt
##ick
ar
##um
take
never
does
con
call
##thing
thou
##be
tr
then
really
okay
something
off
##own
##other
sor
every
##ose
sure
##ead
fuck
br
jo
need
##use
ag
them
##red
happ
bo
should
work
##ty
##ca
##res
hear
qu
way
##lf
pro
said
##ery
hell
bet
##em
en
sorry
##ation
##ody
af
##ard
gon
##ect
mu
##ittle
##ous
guy
##ber
make
down
hu
maybe
gonna
mo
little
co
bu
won
thank
doing
pe
mar
ro
more
very
god
fa
kill
over
wa
##iss
happen
bl
has
un
sir
pr
##ak
##th
##ab
##el
much
##ough
thought
##reat
two
##lie
dr
lea
by
ask
only
hey
our
##body
##oney
wr
##ff
und
##eel
peop
##ta
anything
people
##ew
plea
##ree
under
give
##ide
love
hel
##pt
##ish
##ally
le
car
told
feel
##dy
try
hi
##ving
int
wait
##ite
must
nothing
##riend
day
##ort
pre
belie
beca
long
##ure
help
##ap
because
uh
even
##self
still
##eep
rem
please
##ting
list
night
year
##ather
##fe
fir
new
ot
gir
gr
sc
##ace
##ning
believe
find
har
im
bef
##der
po
isn
ho
these
##ue
name
##ag
last
put
kid
mad
other
again
kind
first
friend
before
better
##ang
##pl
listen
##ich
##ways
money
old
after
##ies
sw
always
huh
great
boy
cour
min
girl
el
em
keep
doesn
those
##ity
shit
##day
ad
miss
sm
##ip
stu
##wn
##are
lot
big
##ass
guess
##ire
##ool
cou
##ance
supp
things
bad
underst
##iz
part
##atch
into
remem
home
##eal
la
happened
##get
talking
mon
##ried
real
around
##per
per
remember
stay
##row
wrong
understand
life
course
##ment
dad
care
ac
##ft
##son
##sh
##ix
##ress
act
##ny
play
stop
##nt
##ud
fl
##age
wouldn
##int
minut
id
away
leave
##ep
##ank
ph
##ci
mat
##ord
nice
place
fine
ain
tom
##ood
three
years
bus
dead
mother
##man
##ves
##ved
everything
##ise
cra
start
run
sec
##amn
##urn
##ady
mor
dis
ya
##ia
father
hand
##ond
mind
gotta
ser
##ctor
mom
##ile
##ouse
wasn
wanted
##iff
##ious
made
##oth
might
pret
##ence
##ful
thanks
##ath
done
getting
show
##ild
mak
hello
##qu
saw
heard
ton
##een
tra
else
##ey
##ory
came
wom
da
thr
tak
imp
##hn
di
enough
##oss
ass
inter
fo
haven
##ek
someone
ah
cas
##mm
##ock
meet
char
five
house
##ater
fun
son
john
##ac
##pect
knew
bea
##ach
looking
matter
head
sch
ins
pretty
sl
##itch
job
trying
##act
left
another
seen
cr
che
res
coming
fucking
idea
plan
room
app
went
hur
jes
yourself
tonight
rec
##ange
##ian
guys
##ught
gl
being
jack
quest
hard
own
read
chr
week
bre
##ph
##gg
seem
fin
##ign
pa
##osed
##ope
many
##my
through
pu
their
bab
##ister
watch
##ark
##ner
question
ter
called
##og
##iness
war
jesus
four
##blem
problem
##enty
diff
##orrow
##erson
sound
##leep
##ert
word
yo
used
##ple
op
morning
##ually
##orm
sho
##ary
pol
str
saying
##ife
six
##zy
live
##ated
same
killed
##ince
acc
wonder
walk
comm
prob
baby
couldn
rep
says
exc
##anna
tri
ed
mrs
dri
aren
att
cut
damn
##ict
doctor
hold
business
found
##able
today
use
turn
##eak
cont
##ible
drink
christ
##right
comp
aw
yet
person
##raid
minute
##eet
best
exact
late
tomorrow
bar
##oy
hund
eas
far
wife
which
pay
##xt
afraid
men
ten
fam
brother
deal
##ably
sit
##ready
##ident
ga
hundred
met
bring
inv
already
hour
world
gi
des
##ird
once
set
##orn
most
##ream
sen
crazy
sur
woman
next
looks
pick
##ans
differ
ago
point
exactly
sleep
##ily
forget
##ever
wanna
##anc
stuff
probably
hope
whole
##uth
school
open
##by
alright
##ling
fif
thinking
##ng
such
##les
beaut
break
##ult
gone
pres
eat
##sw
ge
##here
somebody
few
prom
since
nobody
supposed
##pe
rel
check
wants
took
alone
##ons
capt
shut
gun
hot
ev
die
hurt
fig
worry
twenty
bill
##ors
true
days
honey
##ars
frank
book
pri
half
##ize
##pped
ap
hon
while
lost
anyone
##ss
stand
##ical
working
myself
second
wish
without
##ret
interest
end
##iful
friends
##io
doll
ready
answ
makes
luck
##ouble
##ail
toget
actually
child
asked
##ition
cop
hit
sca
captain
tea
##mo
ey
soon
young
eight
hate
beautiful
##ub
dec
case
fu
gen
##ren
gra
te
##ah
##ying
bull
spe
law
easy
num
rest
shot
##ired
##no
je
godd
##ger
##air
reason
together
sk
##ane
##where
##rew
sometim
unt
mill
##ought
minutes
ob
suppose
story
anyway
##unch
thous
high
funny
col
sim
##ding
##ott
##amp
##ib
quite
police
excuse
knows
count
ear
ben
serious
##ude
having
married
##ither
trust
move
cor
gave
hun
thousand
thir
pow
month
phone
pat
happy
shoot
fight
bit
mil
anybody
jim
expect
speak
answer
bro
cause
taking
##vor
lie
kids
lik
compl
everybody
sign
##gin
expl
conf
bed
dep
poss
cert
##ne
##ating
##llow
telling
pass
vi
##orge
##ley
cal
##cept
least
dream
par
##ness
both
##ash
##ug
##az
until
del
##ump
##pr
inf
##unk
family
light
##ier
##ens
adm
##ual
door
##ames
##ions
bud
face
sick
star
##ract
feeling
town
cle
##less
mine
air
##uss
shouldn
close
fuckin
din
bob
##ouch
##ade
news
trouble
##ient
##ett
sweet
mur
sam
times
bra
different
sometimes
tried
forg
hum
##ied
##ely
george
pet
##ations
import
pict
truth
perf
follow
rid
chance
cons
send
##vel
black
certain
mov
sal
yours
daddy
buy
ba
##ork
##cial
goddamn
fell
hus
##ned
maj
pull
##outh
eng
couple
fire
mess
##uc
##ont
whatever
ind
number
bur
det
##enc
everyone
terri
##ention
change
heart
making
##more
##up
sounds
beh
gets
##hh
later
sy
##ison
##ole
##eral
free
##olog
sex
glad
lear
party
##most
##hin
sort
important
sent
game
##sy
dog
goin
thirty
dear
ta
wear
drive
dar
sn
reg
almost
##ial
##ton
##ins
##ates
def
touch
finish
husb
gre
water
##land
sus
bas
##pid
##ject
grand
husband
lou
##iver
##co
white
stra
mary
lady
ra
##teen
mi
sister
coll
##shit
pap
##ler
anymore
##ross
death
fact
harry
stupid
died
##come
##lin
##inc
though
ele
##its
dollars
scared
waiting
##aps
fifty
wer
##cc
ship
##arent
ret
sing
unc
ow
stre
cho
seems
cur
fast
hor
##key
win
wal
##nie
goes
dinner
inst
hours
##iv
blood
power
each
conc
hang
##ised
inside
inc
means
##ward
bel
##ents
office
bullshit
pain
##ction
##ush
body
either
fil
##gr
beat
nor
ru
##bb
red
seven
perh
women
dra
##ator
##ets
hair
##anger
secret
cool
rich
es
##ured
mart
##led
asking
side
##so
##ings
order
weren
perhaps
dick
pie
chang
boys
ahead
fall
##00
along
comes
##artment
smo
paul
running
##iet
surpr
bitch
##ime
kidding
sense
months
key
sat
##ama
million
##vid
##ma
abs
safe
art
murder
mister
##app
##ield
##umb
girls
nick
dan
mich
##pit
##me
hands
er
##eric
exp
president
eyes
##igh
##ote
##sel
offic
coff
promise
nat
##side
##vin
report
mus
wind
sub
prof
favor
clean
line
##ms
lock
mag
max
jeff
mer
##ru
write
against
record
full
buck
dist
ke
mist
vis
##ten
##ense
cla
joe
cold
leg
figure
doin
buddy
perfect
sid
its
ext
americ
jer
test
wit
##ures
##tle
started
fool
shall
brought
hea
##ster
explain
tired
##vis
##vice
##ters
##med
##ughter
##ps
leaving
poor
bother
##erv
##ider
alive
also
##gry
##olut
city
nine
ray
disc
ref
##ular
build
charlie
mid
calling
dou
rad
trans
mem
##ief
betw
king
##vy
clear
prop
lucky
tap
worth
class
gent
##zz
state
living
##rol
lose
special
ty
##ks
fair
med
ought
rose
pleas
dress
na
add
straight
ball
dire
rather
um
##ards
small
david
fel
none
pal
squ
##ited
major
coffee
between
##die
wonderful
behind
##iting
##uce
throw
outside
somewhere
teach
hos
##ugh
worked
miles
movie
##ount
##any
##ides
bank
##ael
##men
##cks
exper
##pital
land
##ats
train
bes
eh
kiss
psy
##dd
##itting
accident
general
danger
near
moment
fly
parent
##ience
happens
prot
playing
picture
walter
catch
du
##ern
able
weeks
certainly
learn
psych
boss
tot
worried
pop
front
taken
meeting
michael
sell
till
york
##ax
##ze
ride
##vi
##ony
daughter
country
##king
known
save
talked
street
fre
fix
food
lead
##oul
imag
gentle
##ipp
##bt
works
drop
##airs
inform
less
##omb
offer
swear
parents
date
mouth
tre
cann
##aa
##erg
##room
blow
bat
pos
park
##bl
dest
lord
##gan
##als
##unt
mark
strange
pen
past
sto
##ics
looked
needs
quick
children
possible
spo
complet
wow
##ric
honest
absolut
hospital
fe
words
control
priv
dark
oper
ste
thinks
coun
hotel
tele
jimmy
bast
##nes
##ines
top
busy
slow
company
##ones
super
vo
##ander
quit
eve
##ced
##dle
wel
begin
smart
mama
##bar
lives
except
uncle
bird
lar
pack
##ode
sun
##iew
yester
los
##lo
##ative
##rest
ann
sher
resp
hmm
ju
meant
##bert
cover
questions
interested
lu
step
ups
aff
marry
fault
smell
ell
mention
##yer
##ming
##ically
yesterday
cent
##la
mach
appre
peter
dro
gee
ted
cond
disapp
clock
flo
piece
cannot
bag
pur
##uts
mis
wall
##cent
##ys
happening
laugh
human
consider
profess
lying
chief
loved
careful
attack
##bo
##fer
tha
weird
blue
lunch
##go
carry
paid
##ency
protect
absolutely
bir
fore
james
val
##lex
##aste
cost
hasn
relax
cat
##joy
stick
fifteen
honor
darling
jun
##iot
ord
rob
simple
terrible
cry
dam
dun
##ney
nothin
suit
sev
ent
drunk
cops
burn
low
tough
##eap
sold
worse
##aster
fucked
eddie
changed
felt
bout
##lish
seeing
##ility
##ift
cloth
handle
hurry
music
sea
wed
##arth
spend
personal
bri
dude
ran
##gn
assh
##ship
early
besides
ill
knock
plane
figured
vir
##idence
giving
mistake
den
##ken
road
broke
upset
jud
sand
doc
eye
creat
jake
##ho
##ase
quiet
evening
##ances
appreci
ver
##ces
##vious
##ina
##ific
agent
difference
doubt
press
##mit
##br
reach
boat
enjoy
drug
grow
interesting
##ully
##ls
##kes
##rey
##amed
outta
chick
himself
mac
moving
missed
treat
wake
##cri
##vers
rock
trip
apartment
clothes
tur
##port
##ined
##ene
stri
forty
clos
takes
liked
bust
hop
jew
ly
pard
tick
short
neg
gar
norm
wo
##und
letter
conv
others
birth
fred
nerv
ring
##te
enter
strong
paper
bath
ice
mot
anim
conn
truck
feet
kick
sake
##tin
##bor
##ized
publ
invest
welcome
alex
cam
card
wi
##ues
store
goodby
##aine
army
johnny
calm
detect
private
ir
pract
sad
van
likes
owe
nervous
deep
##ald
##illy
##onel
anywhere
##ists
realize
mike
choice
bucks
breat
jump
loo
##ows
##ants
cash
goodbye
ou
##yle
sol
##ulous
cab
amaz
twel
invol
apolog
message
cook
cross
##hear
##earch
holy
stud
respect
watching
english
bastard
twelve
tem
thi
tor
hungry
finished
##gar
##ef
##ano
ones
##ili
picked
asshole
mas
##mer
club
unless
kinda
obvious
lieut
syst
radio
earth
##ior
##ately
carl
impress
dangerous
cong
fat
rick
##ball
abo
##ica
caught
court
staying
turned
comput
pardon
lieuten
ja
lay
pea
rom
##ring
##itive
##ume
prison
##ages
##gram
information
cig
dig
dance
hid
lad
##inger
##oof
##ored
calls
american
appreciate
system
piss
##ray
##stairs
##idge
gold
yah
imagine
lieutenant
nur
san
third
##ories
##ided
somethin
given
colonel
officer
ger
afterno
billy
green
fut
##oud
##pping
##ission
cir
jul
##oint
##li
##urt
arrest
lots
finally
lawyer
forgive
##tern
wrote
phil
foot
natur
born
sitting
tv
##oup
ther
wha
##used
roy
discuss
afternoon
fed
hist
##uation
##for
##irt
talkin
killing
screw
awful
return
bott
##oun
hall
girlf
adv
hardly
forgot
surprise
visit
middle
tape
stopped
ce
occ
##iam
thom
##erve
fort
usually
admir
witness
ble
fish
main
##ged
##ities
dev
possib
louis
colle
sheriff
19
bomb
nin
##ky
neigh
sail
arg
joke
box
roll
killer
longer
##aret
circ
camp
fol
lim
##ana
steal
loc
bye
imposs
wearing
belong
building
girlfriend
band
bought
hom
mc
master
west
##cess
##ov
##urity
needed
books
horse
machine
bor
dat
mmm
become
join
glass
est
##night
##ann
##amin
dem
pictures
voice
dumb
hy
jail
mir
##mas
##bi
##ots
island
exce
accept
service
jean
ridic
kept
future
impossible
cy
hen
##to
##fully
##vern
saved
listening
decided
##rench
direct
college
round
south
tal
##da
ange
beg
requ
##ilt
reading
problems
martin
floor
public
cast
gard
sil
wild
chur
william
hadn
quar
betty
##tact
prep
christmas
price
admit
bobby
defin
jerry
pleasure
totally
respons
dying
##ety
space
arm
post
security
driving
corre
patient
brain
##selves
cow
cell
mod
mitch
silly
##ki
##bers
##att
beer
neither
##ury
allow
sugg
##roy
board
emp
partic
viol
address
gentlemen
completely
fi
ris
##friend
##ino
##enny
##ism
##iment
spl
evil
ridiculous
church
ay
age
##ened
##uring
gotten
suck
##ices
##ortun
present
suspect
papers
wedding
amazing
ber
jam
wood
##ium
##vo
##iter
##ston
andy
asleep
across
charles
govern
sha
##ico
load
##table
boyfriend
##ette
##heart
bi
heal
amb
arr
program
##ational
missing
##aren
tommy
##ogn
cute
promised
detective
suggest
bunch
eff
fear
hide
rain
cha
whose
client
remind
recogn
commun
earl
smoke
involved
french
lam
table
##ham
nose
contact
contin
team
extra
connect
bow
hol
weap
##ute
whoa
##esty
moved
idiot
divor
charge
sens
object
deliver
jeffrey
history
bear
fill
opp
##ror
threat
wash
plac
self
unf
starting
dave
##mmer
##ogra
victor
surprised
birthday
cigaret
code
gas
ni
song
##ka
##eas
lived
##ille
##ional
guest
closed
putting
standing
proper
gim
blame
phot
diffic
##oyd
situation
named
wil
##gu
##he
fright
loves
buzz
pray
ground
partner
##ments
flow
appro
wondering
grace
heaven
computer
fired
kr
russ
##rat
##view
##imin
sudd
grant
holding
sweetheart
camer
correct
dor
rand
yell
##ai
##uty
##iced
writing
study
walked
fellow
terrif
film
definite
cre
cust
lee
pig
push
##ha
tow
##iday
station
##ends
lovely
plans
gives
movies
esca
##vision
destroy
sudden
coo
cup
lind
nuts
##uct
##cy
##fuck
##etic
inno
often
stan
brown
bruce
crap
spec
admiral
henry
fit
gift
jan
mal
vac
##ipped
##work
notice
##ches
brad
majesty
elect
draw
window
peace
folks
jas
las
mic
sar
##boy
thin
stuck
##pper
bridge
marri
##uthor
department
north
type
equ
egg
hook
pan
pil
##bur
ant
haro
form
meaning
twice
prove
robert
group
##cially
track
paris
judge
bathroom
investig
double
soul
tight
##ena
mel
lloyd
spent
agree
##emy
acting
insane
trick
difficult
harold
lem
mm
nig
sle
##how
##atic
##ease
nope
hero
manag
##ulations
spir
block
##akes
host
mission
mommy
crash
account
seconds
tech
normal
neighbor
excell
gimme
cred
jos
nah
##une
##ify
apologize
##fortable
field
lang
##eed
##ature
##enn
angry
force
gettin
franc
cap
const
intr
flat
brothers
dollar
base
instead
keys
condition
professor
entire
animal
thomas
fant
pill
rent
##eg
##ero
stole
##rick
plenty
using
seat
dreams
memory
orders
dunno
aud
les
ye
##ius
##cut
##iny
annie
suff
##ended
queen
moon
princ
##place
crime
commander
##ancy
breakf
beginning
nurse
fro
tar
##ugg
wheel
##ether
tells
##ified
robb
prod
leon
advice
phys
##achel
seemed
sleeping
seriously
single
danie
loose
hill
kar
ry
mex
dont
worst
##ules
feels
keeping
##ians
walking
scare
curious
norman
espe
position
particular
breakfast
odd
rough
taste
##eat
shock
sta
##ula
##astic
marsh
faith
travel
appear
skin
broken
danc
file
gord
names
rap
##bit
##za
##zen
##ering
share
kno
washing
arch
##ument
##ption
senator
calif
incred
favorite
feed
pin
por
search
##ives
##ination
neck
sue
lookin
fail
proud
scr
scott
sixty
command
evidence
obs
marty
congrat
definitely
innocent
boo
pot
ros
river
##val
##field
ital
##ises
##urs
##urb
champ
adam
lately
richard
freak
jason
bal
gri
nic
pound
port
##uit
##uff
##por
##com
##va
##itor
butt
##icide
embar
support
decis
color
collect
cous
crow
due
kay
mass
mix
ram
rout
ven
##ron
lic
lied
##oop
sugar
summer
spee
clim
attract
attention
gener
locked
spoke
aye
places
californ
aut
crew
##light
whether
##itude
stories
ash
upstairs
guard
madame
swim
##cious
guns
fella
sym
naw
drugs
obviously
30
luc
view
##cer
##hood
##den
##ker
##ste
bell
##ura
##elly
##icated
ways
percent
played
flight
opin
magic
ori
page
wes
##bs
##ford
##itz
hav
weather
blind
level
intell
elaine
planet
shooting
danny
data
##ograph
terrific
credit
especially
california
dy
dir
during
fbi
pi
tear
wound
##iat
##col
##ese
noticed
##oody
##ada
##resh
##thy
##ploy
emerg
smith
drinking
checked
fighting
detail
records
america
heavy
experience
television
dropped
##iliar
techn
gordon
cree
##uel
##rass
##iant
##gue
anna
note
##enth
##ession
##aint
##ending
brand
built
prefer
holly
crack
settle
benj
following
eleven
horri
larry
gal
games
hm
jus
ol
rum
wine
yep
##rop
##etch
rece
##urance
##ished
keeps
familiar
expected
pete
murdered
luke
hiding
devil
custom
embarrass
dirty
borrow
dump
furt
gay
jac
rome
tree
ug
vict
##gen
##que
##isf
##eth
shop
##cha
spock
cole
showed
sla
ideas
accord
doctors
farm
apart
goddam
simp
marriage
hat
kir
rules
tie
tour
##ners
##avi
##ville
##read
heh
##ries
chair
comin
arri
tru
joey
agre
proof
##els
##ints
motherfuck
serge
beach
airport
pulled
tax
susan
losing
junior
seventy
government
cousin
aunt
eth
gho
tip
wy
##ped
##cus
##of
##oon
bey
stat
lift
organ
##olf
convers
polit
trial
attorn
relation
speaking
perform
concer
concern
ticket
empty
congratulations
000
aust
author
ban
dea
dry
fan
jeal
rig
ti
##ued
##pap
##gas
##tain
iss
stone
##itten
##aked
ourselves
harm
assist
crimin
shoes
excited
descri
feelings
recognize
washington
benjamin
victim
concerned
finger
lab
ms
si
sant
tit
##par
##nin
##gs
##town
##lor
##let
##ya
##eds
onto
liar
necess
spot
cock
hired
scot
hole
johnson
weekend
term
speed
##ology
raise
perfectly
sidney
possibly
introd
emergency
sergeant
ghost
attorney
jealous
bod
weak
##ral
##ishing
ham
##ida
shark
area
##elle
scene
##aged
insurance
decide
hunt
passed
##ensive
susp
forever
busted
request
opinion
horrible
according
jour
lis
lone
pool
rab
rip
wast
waste
##ging
##ges
##ared
##mission
##oned
haw
##antic
soft
##ement
unh
hild
scient
##anged
ident
craw
runs
contract
mostly
indeed
taught
subject
disturb
mentioned
purp
hoping
split
10
mood
rat
ur
##lu
##wh
ang
heat
##leet
forward
##ently
exam
helping
grad
scar
interview
charact
common
famous
eating
eighteen
satisf
medical
lemme
decision
bon
civ
duty
ign
mcc
##sie
##ga
theory
##eared
##omm
shhh
##lyn
goodnight
project
beth
buff
leo
cars
tryin
scream
switch
##acy
repres
event
sooner
grab
depends
satur
nature
virgin
linda
vacation
##stein
origin
fresh
gam
jane
match
sna
vol
##ob
lif
##ilty
guilty
usual
sever
comfortable
mail
pock
monster
sonny
copy
sky
sometime
expecting
babe
learned
##ruct
gentleman
hmmm
german
responsible
spirit
langu
incredible
speech
bite
east
hors
path
sour
wan
##hi
##bly
threw
##ato
##eter
##ita
shar
##che
sund
##oph
##icle
plus
letters
comb
surely
bright
prec
science
sword
career
##othy
shower
recall
awake
aware
desert
eighty
complete
teleph
chicken
quarter
francis
mexico
license
ugly
bond
rachel
sin
tall
vide
##au
##aur
##ids
stock
vegas
alan
exist
pregn
planning
##gging
driver
##eeth
desk
##otten
newspap
##cover
faster
##rupt
mickey
excellent
daniel
beyond
hildy
saturday
cit
hated
jose
lun
pants
rub
til
##po
##nn
##kin
##bon
tooth
reck
stew
within
##icious
herself
tellin
willing
cares
sport
enemy
personally
corner
lights
sneak
hanging
drag
##ipper
positive
birds
ellie
camera
manager
relationship
cu
cards
fri
ken
nar
ron
tun
wet
zero
##tes
##well
youre
##ered
whad
##asc
stom
whoever
##unce
friday
##ains
sean
poison
emot
assign
inspect
##gged
committ
deserve
dressed
training
quickly
ladies
naturally
dorothy
intellig
lonely
civil
cart
gall
gang
kane
row
sie
witch
##wood
whis
##ening
##asy
##imate
##roll
claren
brill
margo
serv
##ache
numbers
magaz
steph
disappoint
natural
flowers
ryan
cos
fem
jon
lond
size
tay
teeth
va
wise
##lan
reed
##lebr
succ
ate
##using
amy
scri
greatest
bigger
action
jackie
broad
regular
smoking
director
steve
practice
celebr
mitchell
risk
effect
climb
further
simply
clarence
20
jee
jess
sight
wire
wade
##sa
##nal
##house
##de
##ites
weight
held
##arm
shr
##tered
hearing
immed
assume
charming
apparent
jacket
watched
warm
paying
dogs
loud
rule
claim
total
afford
breath
bottle
sailor
cooper
conversation
11
corn
cream
nut
##xter
##esar
hal
##imp
storm
deg
univer
writer
employ
##athan
tony
damned
design
grave
milk
##aaaa
arrange
opportun
sunday
ki
kin
nail
pear
ri
sally
##gers
##tor
thurs
##iner
##ution
shap
##sey
knowing
stars
thinkin
##usion
spare
##bez
brit
roger
carter
appoint
turns
baron
bringing
opened
##ences
large
drove
jabez
mirac
talent
divorce
approach
represent
language
london
dom
mul
##gress
##ele
thro
##ona
whom
##esh
rev
chas
anyth
##ication
caesar
qual
swell
serve
brings
invite
snow
ordered
legs
refer
teacher
carrying
robin
pissed
weapons
eggs
character
pocket
joseph
taylor
bum
mount
nu
ooo
oil
punch
rh
umm
##ration
##ires
##nel
##over
whatta
meat
abou
##rica
cheap
log
##istic
clark
waited
helped
monsie
frankie
reasons
sales
paint
files
claire
disappear
boring
allowed
script
immedi
thursday
bones
kitch
##con
##zo
gosh
shame
shirt
##cker
justice
map
maid
##ago
kidd
##izing
disg
terry
access
beauty
patrick
baxter
secretary
jerk
expert
crying
illeg
blew
angel
garden
frightened
slept
pounds
purpose
success
apparently
monsieur
kitchen
bay
lake
mut
non
pee
rod
wend
##gy
##head
##ale
##sty
##oose
suicide
chic
##ppy
plant
##asty
clay
##itty
trade
enc
downstairs
fac
bloody
nights
holl
stayed
player
disp
pretend
trap
##phy
repor
bullet
clever
followed
engine
magn
extre
escape
criminal
18
fal
lines
nons
pun
pers
tues
vamp
##uh
##rit
##iers
##nis
##off
##wise
thy
##inary
shield
alb
trunk
everywhere
ours
laid
actor
math
shows
matters
heads
research
pair
wondered
##iction
picking
answers
milit
regret
tapes
typ
square
psychiat
fixed
leads
burned
earlier
cigarette
video
nonsense
cath
dign
hates
kil
kelly
nap
vul
##time
##ym
##mond
bee
social
butter
ali
nowhere
someplace
saf
exe
whenever
separ
carp
older
plays
heading
headed
strang
easier
breaking
##retch
simone
ruin
claud
nearly
sevent
closer
bleed
unfortun
russian
princess
motherfucker
tuesday
cub
ears
jap
kath
lat
lit
mall
peel
rush
seal
##iest
##ket
##kins
thor
thel
web
##kel
##ades
plain
##rage
somehow
##ils
##ateful
##osition
spring
buying
written
firm
imm
jesse
##ggy
fourteen
commission
desper
fund
pattern
humor
riding
flying
damage
negative
enterpr
cyn
cowboy
chaunce
cigarettes
truly
pregnant
chauncey
kim
##rance
##cul
##dia
##ees
##ked
##ising
states
liz
##vert
cance
saving
manage
quot
smile
##ressed
funeral
insist
recomm
surv
restaur
indian
louise
##ground
express
smells
strike
lydia
romantic
bottom
suddenly
sarah
karl
crowd
necessary
several
telephone
citiz
brilliant
jeez
dum
fasc
kat
led
net
national
pier
##back
##ini
theo
##anz
doors
stink
##irm
##rie
chap
##icy
##ores
##uses
frances
sees
trad
agnes
energ
remo
madam
monkey
phill
showing
edward
attitude
awh
invited
tex
complicated
sexual
incl
falling
laughing
negot
temper
impressed
fortune
jeanne
pilot
neighborhood
recei
jacqu
stomach
fra
gro
ment
mort
pure
pian
pump
ren
sire
##ule
##cle
##av
##father
anal
dozen
shift
knight
sayin
##ila
##ained
deck
fab
blank
unus
thoughts
leaves
helen
mustn
believed
poet
ahh
##ggie
final
barn
barry
touched
powerful
doug
market
steven
##inese
pressure
turning
animals
ricky
yellow
josh
15
bac
bert
dust
dare
hoo
junk
lenny
pic
##nam
##case
##agh
##line
##ww
##bling
toward
rever
stead
##ami
neil
##ural
chinese
letting
comr
##oles
spook
arms
moz
coat
blond
prim
nightm
kidna
##ips
coul
carefully
craig
disease
rooms
##nold
miller
signal
##velop
england
buried
treas
battle
opera
county
##board
mask
woods
health
weapon
fantastic
staff
italian
opportunity
illegal
claudia
seventeen
japan
awhile
avo
bare
eur
eric
jones
lect
ox
pink
roof
vit
##pir
##gest
##oci
##bby
##asion
style
chest
alice
##oret
##empt
downtown
gray
finding
starts
associ
chris
sixteen
confused
starf
brave
forgotten
sending
sisters
##bbie
nicky
oughta
pleased
spoken
loser
center
##under
federal
local
prepared
responsib
jamie
property
janet
physical
dancing
issue
horses
reckon
miracle
enterprise
restaurant
12
50
cro
fried
gitt
nasty
sed
##rant
##oe
##ex
toby
noise
lips
loy
dew
##umst
##bel
joint
shoulda
que
mob
print
grateful
otherwise
emb
monday
peri
trail
sched
confess
defense
balls
selling
soldier
solid
cabin
royal
gardiner
williams
connection
divorced
objection
details
romeo
bodies
unhapp
mozart
nightmare
cents
dent
dil
hou
hanna
ku
naked
tu
##can
##anie
##esa
stol
##ceed
soph
howard
clo
huge
bless
united
grown
emper
flor
discover
assum
cheer
owns
gale
sweetie
##ologist
concent
##ipping
honestly
affair
above
target
creep
agreed
lisa
magazine
immediately
chicago
thelma
piano
period
emperor
gate
lous
mig
nathan
tong
vinc
vada
##aw
##min
##bage
##xx
##zing
thief
##ati
##eday
##kee
##oooo
##rap
guar
someday
mayor
progress
coinc
fav
prince
##eline
partners
permission
sonof
diego
hunting
bedroom
passing
terribly
grandma
elev
squad
season
brian
virus
garage
motel
circumst
communic
continue
anti
mixed
inspector
jessica
pearl
british
energy
unusual
europe
starfleet
gittes
25
av
bart
ep
jury
mum
meal
os
oth
pir
puss
rare
tab
tel
wid
wolf
##pher
##down
##mother
##face
##inct
##reen
hay
dol
doyle
bein
becom
rex
stro
cancer
##ado
shelly
upon
##ung
lois
##ucker
##ender
develop
among
spell
clar
armed
otis
eliz
##ipe
biggest
laura
activ
matt
insult
planned
terror
repeat
opening
frankly
priest
##ashed
##ension
burning
susie
##ledge
radi
experiment
covered
ellen
breathe
therap
screwed
ninet
##ovich
assistant
wasting
female
appointment
execut
negoti
steady
loyal
cake
duck
drew
fle
fought
fash
jill
kurt
karen
lap
pad
range
var
vill
vall
ward
##ua
##uction
##rate
##cil
##bed
##fort
##onica
##isc
##otic
anne
##stand
doe
heather
bec
##lect
lip
chew
chances
whore
##ulation
##ifer
deb
coke
unif
preach
##agne
##ples
understood
mornin
resc
apple
tricks
drinks
relig
hung
parano
admire
goddamnit
defend
singing
dickie
official
kevin
legal
banks
lesson
wallet
professional
creature
practically
silver
loaded
guests
pills
newspaper
sieu
safety
unhappy
lousy
bible
bored
dim
diz
fake
gig
han
muse
pour
piz
rate
vice
##ses
##af
##ave
##ders
##ware
##fred
toss
##enna
bever
knife
lies
however
##ril
chat
chem
china
anyhow
##anda
##ushing
fran
gum
##olic
debbie
##uman
trou
marcus
##aking
##atherine
grade
score
harv
impl
swing
acqu
recently
accom
exciting
laws
complain
brains
##nedy
darlin
greg
chocol
winning
instruct
midnight
freed
destiny
counsel
wednes
knocked
veronica
mason
argument
belongs
castle
destroyed
lester
scratch
route
ethan
santa
satisfied
kennedy
shape
throat
robinson
wendy
guarant
uniform
100
ast
dish
fing
jenn
len
nun
punk
tent
tag
tank
ul
##ull
##gon
##oc
##lic
wher
##rees
##itation
##uther
inj
##lder
##usting
cand
soci
shel
sup
aside
albert
alarm
goodness
##ilities
##ulse
fucker
bure
unit
underw
thrill
diam
interrupt
reserv
genius
reasonable
skip
staring
##etti
behavi
ruined
changes
claude
bothering
medic
spoil
elliot
attacked
brief
deny
occur
glasses
electric
investigation
baseball
robbed
hollywood
military
dignan
jennifer
et
fer
fancy
grew
hous
kent
lomb
nam
nerve
oce
pant
righ
tail
yup
zoo
##oh
##low
##atio
stor
stretch
liqu
##cher
##ante
likely
##iece
alvy
cloud
process
betray
hud
##abitch
##abeth
intend
finds
harder
friendly
badly
##pert
jobs
puff
terms
fourth
commit
attempt
cutting
metal
desire
##ngth
checking
ended
policeman
corpor
signs
engaged
##uced
snake
register
strength
secrets
artist
##olution
member
statement
parker
operation
##load
juice
geez
disappeared
sandy
growing
arrested
model
panic
nigger
champagne
ashamed
describe
example
mulw
stolen
elizabeth
fashion
museum
chocolate
wednesday
bul
bound
lon
mam
naz
wat
##rison
##gie
##cr
##lock
##erm
theater
whe
heck
reward
aband
cher
chann
france
##essa
loan
talks
amount
spread
twist
##ittin
tran
offense
unp
uns
unbe
scary
sweat
parts
mont
##iac
cheese
resist
barg
promot
hurts
ends
decent
bullets
explan
pulling
mikey
miami
pieces
##ruction
clearly
offered
penny
central
dammit
soldiers
created
tickets
convinc
motor
aboard
julie
hyp
arranged
arrived
wyatt
title
journal
original
source
narc
chasing
extrem
avoid
diamond
behavior
mulwray
bern
cats
catherine
dirt
jen
kate
ned
nix
ped
##rist
##lv
##lig
##yers
##wor
anx
whats
##stone
liber
##amer
sore
choose
##rog
##istol
deeds
wayne
##aken
carried
musta
##ization
reality
mater
morph
diane
johnnie
shoe
dealing
sett
prior
prick
standard
signed
passport
starling
grandfather
painting
murderer
foolish
transfer
pleasant
duke
bags
dunbar
closing
jews
garbage
woke
breathing
student
lampert
tower
appears
kirk
austin
ripley
reporter
hannah
lombard
ocean
bang
bark
dies
dud
gab
mos
mile
opt
osw
pit
pitch
pistol
rac
rope
rude
tits
vince
wing
yard
##ially
##sch
##lies
##we
##vable
##ko
##bot
##ators
theat
dool
init
stab
wanting
##ryn
outf
chill
worm
section
cable
male
##itted
brook
bug
blo
##thia
hire
remark
poem
swe
flash
takin
slight
cru
chriss
warri
surre
passion
vik
learning
grandp
facts
dickson
falls
handsome
expensive
distance
tyler
superman
teddy
spending
freddie
alexander
ouch
tort
philos
homer
equip
attractive
embarrassing
introduce
francisco
univers
cynthia
bureau
cri
gus
kit
litt
mack
ny
pra
patch
rail
rib
tast
tiny
vick
wander
##rand
##sing
##cl
##eb
##wa
##wich
##mon
##bles
tho
##llo
##rel
##rell
##rent
hack
beck
##ara
repl
libr
suits
chase
sale
boston
workin
askin
kinds
minister
fletch
flesh
dawn
intern
headache
hurting
policy
compet
barnes
survi
younger
compliment
explos
confer
confident
dreaming
##ological
instit
incident
vision
duff
psycho
century
miser
considering
entertain
kicked
impression
julia
ninety
prepare
bowling
holiday
escaped
lucy
performance
rabbit
pathetic
tunnel
desperate
citizen
fascin
responsibility
tongue
circumstances
pussy
became
21
bun
bail
cad
cure
dw
guts
hir
mere
pac
porn
rag
rank
roth
##gl
##vent
itself
##oma
thats
inn
goo
andrew
shor
knowledge
novel
stamp
candy
##ador
##rict
sheld
chin
##ulate
comfort
dean
dece
bride
coast
marge
##aker
lex
grady
adj
lotta
serial
makin
casino
charley
crit
result
recon
finan
warn
edge
holds
easily
meth
invent
desp
release
evan
bills
fuel
graham
lawson
thirteen
deputy
##enses
murders
bury
satan
dana
trees
package
protecting
tempor
hidden
juliet
occasion
continued
sensitive
delivery
creasy
particularly
routine
##ropri
victims
sharp
precise
degrees
false
carpent
webster
recommend
survive
texas
includ
jacqueline
comrade
avail
freedom
medicine
unbelie
explanation
extremely
oswald
doolittle
14
boun
dow
diss
fur
fate
hank
lack
lula
nuc
ove
poo
pent
rif
zone
##ris
##rake
##ios
##oot
##old
whist
toy
##sters
goi
relie
steak
forced
##cho
##rian
suz
cham
chuck
##ella
##allen
##allow
veh
##ops
##road
herr
##geon
exch
coulda
lets
##osing
willie
spar
truman
joking
themselves
coc
marvel
kills
drown
flu
##cile
moron
trace
thrown
crush
##gger
reput
educ
barbar
##ansas
benef
trusted
powers
confidence
engage
snoop
marylin
walt
changing
memories
throwing
popular
batter
counter
considered
valu
sandwich
jewel
football
possibility
filled
photograph
##burg
constant
odds
ghosts
gradu
psychiatrist
bleeding
unfortunately
schedule
coincidence
sonofabitch
bargain
outfit
viktor
bour
ded
fee
fishing
il
ira
link
loret
mate
rack
race
tan
tied
ves
vers
##ram
##cra
##book
##bows
thumb
##erves
tod
toil
##arily
shad
shore
stood
##iro
ohhh
alfred
saavi
fruit
##iling
lover
timing
sew
sem
clown
##icks
proceed
moves
scan
screen
##ipal
homework
moral
series
traff
casual
glenn
warned
shopping
##icted
contr
millions
thousands
freeze
freezing
basic
basement
cleaning
palm
purs
congress
thomp
witnesses
demon
demand
healthy
ambass
josie
ignor
emotional
committee
kiddin
blonde
oxy
florida
beverly
harvard
fingers
gabri
##ropriate
loretta
saavik
17
aim
ach
cem
cult
cott
dating
gain
gary
hint
horn
jet
meas
tas
una
wre
wig
wick
##ique
##ts
##tim
##lear
##ba
thick
anth
##edy
whatcha
##itlin
haul
neat
sheila
sucks
challen
alph
frida
orange
caitlin
clue
arth
##uments
everyth
joy
boats
mole
peggy
blast
league
helps
##agger
emily
parties
laure
actual
served
mighty
##quis
focus
warning
struck
edie
senior
surg
geor
hits
skipper
##azz
delay
regard
touching
grandmother
streets
current
##wards
smooth
erin
officers
cleaned
maxine
distract
trem
counting
misery
profession
freddy
stronger
jumped
studio
impressive
systems
advant
mcm
governor
kramer
stanley
specific
produc
scotch
screaming
eventually
intelligence
cancel
reverend
barely
dewey
vincent
pirate
widow
becoming
stroke
nineteen
valley
rescue
guarantee
material
equipment
thompson
oxygen
60
aid
faint
gut
jenny
ko
lt
pred
ruth
sink
tam
tub
wou
##uva
##rated
##gun
##ois
##wright
##oug
##erc
thee
##onse
tool
##isd
##ota
habit
weir
dod
dope
inch
beef
replace
stea
stage
lily
##usted
##illa
##ential
##urphy
##ader
sulu
chip
yess
seek
alth
alco
##gel
caused
span
spill
worker
proced
enem
africa
pean
mars
union
##ability
image
##ager
laund
realized
understanding
##cient
trave
assure
ahhh
##aced
beam
glo
sounded
tripp
famil
honeymo
lawyers
higher
delight
humili
messed
based
basically
basket
uncom
below
paulie
reports
transport
trained
packed
respond
misunder
value
dennis
turkey
jewish
negro
fortun
border
mmmm
patients
shaw
lamb
champion
swimming
assignment
stephen
shrink
shields
tradition
preacher
pizza
society
conference
available
unbelievable
rifle
cocaine
marvelous
traffic
ambassador
mcmurphy
24
40
45
aug
bone
cant
der
dre
gear
gather
kring
kansas
liter
mant
ov
oz
pony
tig
wad
wide
wally
##path
##iber
##ec
##ev
##mar
##mos
##bal
##bled
##oura
##ining
##atives
whack
##otch
##oms
shake
shakes
knees
noble
stiff
stones
myster
##oops
soap
nell
wanta
##urice
chi
atl
##icate
rights
guards
didnt
cage
clin
cliff
jokes
agents
boot
boots
prov
gods
blade
##eless
writ
underground
acad
fox
foley
cris
warrant
stranger
awfully
givin
##ssa
##ettes
fellas
sexy
ships
singer
curse
article
testify
direction
kissed
psychic
affect
ordell
lower
treating
vanessa
##like
stealing
directly
reminds
##eased
photo
audition
autom
customers
authority
crawford
urg
angle
volunt
rowan
services
separate
treasure
elevator
accompl
counselor
convinced
reputation
iraq
toilet
arthur
alcoh
honeymoon
16
13
aver
gill
gross
ginger
hatch
mck
mook
mast
oak
pages
rm
sis
tone
vin
##ras
##ij
##car
##ti
##eus
##mber
##bird
##eration
##inal
##ania
##lls
##omp
##erem
mech
##ari
review
shi
shown
ford
##ality
myst
##enture
##tering
chain
##pps
reaction
##ician
plate
sacri
exerc
##endent
device
pros
helluva
factor
faces
units
drum
hiya
uhh
scout
scully
elvis
smar
supper
launch
tons
slip
jackson
bread
babies
ease
farmer
points
billion
colored
patri
infect
influ
brace
messages
determ
greet
winter
tests
refuse
navy
teaching
experi
bastards
judy
conduct
suitcase
burns
ranch
enjoying
tempt
limit
bandit
homicide
mirror
effort
russia
principal
collection
taxi
scotty
suspicious
##elein
mountain
discovered
surrend
miserable
carpenter
valuable
cotton
anthony
kringelein
bump
dee
epps
fart
gest
hood
hitting
luther
moth
nancy
oct
pas
pity
rot
sig
tend
teen
ut
vote
wings
##rom
##rid
##ckey
##ties
##lon
##wy
##vian
##zer
##zel
##ora
##esis
ancient
##eau
##stit
reven
shy
knee
stairs
##eeze
sheets
chee
##race
##rove
saint
##ilar
##igan
cave
##bley
arnold
agency
coach
feelin
##dya
firing
grun
swore
minor
supplies
fla
##cia
##quir
beast
appeal
recover
glor
##ggin
warren
commer
setting
fifth
eaten
figures
fully
shotgun
simon
confir
depress
viet
##ugs
salv
##lina
belt
ruiz
subs
merry
parking
foreign
valent
document
##cription
strip
crossed
students
occup
neighb
argue
cells
prayer
frozen
##uggie
leonard
scientists
virginia
intelligent
disappointed
designed
disgusting
successful
vulcan
remove
fabulous
japanese
instructions
hudson
channel
bernstein
theatre
warrior
university
library
financial
exchange
yessir
although
uncomfortable
mechan
00
ace
aven
auggie
cind
dway
ea
ferg
fleet
hust
ii
ian
ich
kenny
mand
malk
raz
tat
tut
tact
##ux
##rase
##pea
##aid
##ws
##jack
##erk
##inting
##atory
hah
##idate
rey
##sem
notes
##ales
##ched
##urd
##rier
sum
##eller
##rael
hers
saund
##iles
##ilton
exit
exha
sel
someth
somethi
##osal
spr
conven
##bec
##beli
trash
needn
coord
cocks
marks
blown
bluff
asks
lebows
waiter
waitress
gram
swallow
##daya
courage
badge
remembered
playin
minds
trapped
aha
cases
charges
beaum
cruel
bren
pale
teresa
polite
struct
walks
invis
april
shots
powder
patrol
possess
indep
bothered
fairy
packing
response
virt
##ification
reached
enjoyed
norma
connell
discussion
location
washed
grip
venice
goddammit
hawk
lunatic
gallagh
alien
phillip
favour
kurtz
paranoid
occurred
anxious
philosoph
tastes
precisely
barbara
jewelry
shadow
cemet
advantage
spanish
enemies
sacrif
dwayne
saunders
lebowski
bend
bree
bachel
dall
gor
git
gorge
hitch
jazz
kee
mun
moss
nich
oath
ss
soo
sinc
soup
uta
wea
yuh
##ik
##gle
##hill
##lus
##bits
##erick
##onic
##vey
##aya
goose
##lev
##imony
stream
former
##alie
soda
howdy
outa
chart
##hern
##opard
##ican
##icing
plat
altern
sac
loss
##ucky
exists
seb
cared
spy
spit
##bels
joan
happiness
##eman
mud
mulder
bugs
march
intention
prem
prevent
nightma
gran
grass
scen
##ague
adult
flag
assa
slo
crane
owner
pupp
##plex
editor
pays
giant
forgetting
##anced
events
stands
grail
highway
highness
thirsty
confession
depos
passen
vivian
##ception
parad
owes
horror
esc
expenses
windows
locker
merle
district
visiting
raymond
transmission
members
palace
beside
dull
treves
parked
slowly
evelyn
machines
juno
lyn
convince
estate
violet
ambul
extraord
threatening
flower
krist
random
pushed
malcol
excellency
audience
yeh
suffering
robbery
daniels
rape
italy
sympath
western
wounded
brandon
slaughter
statue
political
journey
cuz
committed
strangers
received
kubeli
cherry
nuclear
vessel
peanut
august
academy
mystery
smarter
malkovich
gallagher
dallas
malcolm
kubelik
22
bol
core
dal
fry
fever
hose
jay
kyle
nom
ross
rings
rico
rita
sack
wore
weal
yu
yan
yards
##pes
##sed
##hes
##ds
##don
##eu
##ez
##win
##born
##form
##ja
tore
toast
##ower
##isy
anger
##itect
hammer
weed
##utton
reggie
shu
shh
##imes
stall
sof
button
##inky
##odes
chan
pla
plastic
wherever
##essler
guin
##istry
exagger
##astian
##osa
spider
##beat
boom
boone
booth
rocks
wave
drill
intent
scra
poll
adele
laz
permit
phony
##iable
##quar
thrust
impulse
interf
charm
schm
crook
strugg
useless
contain
##ansky
shuttle
genesis
oblig
##otted
movement
patience
signature
##prints
admin
sammy
goddamned
burke
##hhh
straw
raised
choices
instr
bela
bodygu
satell
mercy
americans
kissing
leader
privile
council
telegram
voices
announ
marrying
walls
june
ordinary
personality
creatures
computers
whale
angeles
martini
sucker
bowl
holes
threatened
granted
randy
entirely
fantasy
architect
venk
tears
embarrassed
politics
introduced
scientist
disturbed
lifet
newspapers
ronnie
whisper
whiskey
vampire
pierce
barton
therapy
underwear
##worth
morpheus
grandpa
fascinating
temporary
gabriel
families
provide
urgent
fergus
beaumont
cemetery
gorgeous
sebastian
35
500
dill
erica
fond
gree
hes
hump
jed
jody
kh
lance
pose
pimp
pushing
roo
site
von
woo
##uits
##hib
##eer
##mel
##but
##bol
##erie
##inate
whit
##ingo
##orable
item
havin
##utch
began
##aroo
##arian
shout
stake
stunt
stacy
fork
##eeee
chos
ath
##ici
seym
##endid
maya
debt
spark
everyday
bron
joanna
joined
##berry
blah
prints
helm
waitin
puts
##play
adop
stubb
monitor
actress
flies
handling
pretending
diet
dial
interfer
schw
planes
recru
territ
walker
attend
contest
christian
awa
presume
related
checks
wishes
interests
genu
highly
fighter
answered
confirm
depressed
possession
budd
salt
salad
burgl
detro
##ivers
retired
beats
absurd
mistaken
legend
roseb
offering
stopping
begins
treated
closet
convent
entering
digging
advise
ninotch
quarters
modern
berlin
bernie
connected
unfair
songs
studying
hills
failed
pike
rumor
rumors
customer
cockta
identify
mccoy
buffy
snap
sports
celebrate
degree
universe
anythin
vampires
catholic
sealed
network
stinks
lecter
concentrate
village
settled
dudley
brooklyn
railroad
confidential
critic
method
including
chamber
vehicle
wreck
surgery
average
invisible
bachelor
utah
nightmares
extraordinary
ninotchka
ditch
fid
fath
kend
lame
nest
option
ral
rust
rug
ripped
tack
tatt
voy
wra
woul
zack
##uing
##ront
##ping
##ns
##nant
##hip
##yl
##do
##egr
##wr
##mate
##bra
##bag
##ít
##erved
thea
##onn
toler
##esc
##isher
##omic
hem
height
##aron
##aries
golf
donnie
##imum
stalk
forces
##ira
butch
nev
neur
##adel
summ
assem
veget
alt
alm
alert
frame
woulda
loving
##uls
werew
selina
orle
mayo
sphere
twom
conce
joel
prose
enorm
cobb
marg
maranz
##eland
##ishop
friendship
swed
laur
acce
morgan
handed
daw
assass
internal
function
slim
appropriate
recent
breast
finest
trib
eats
decor
grav
skull
samuel
indiv
concert
fallen
##umbo
reported
jersey
buildings
landing
catching
pops
leading
imagination
batt
operator
annette
floating
forest
costs
cattle
treatment
turk
closest
hoped
investment
irish
solve
cookie
golden
nurses
federation
folk
silence
empire
threaten
##ographer
victoria
create
species
melanie
hostages
shocked
raped
porter
deaf
labor
germans
vaugh
josephine
logical
kathryn
temperature
mental
poetry
friedman
assuming
epis
executive
storage
liquor
promotion
liberty
sheldrake
suzie
photographs
challenge
tiger
mookie
surrender
revenge
confirmed
ambulance
venkman
chosen
seymour
adopt
genuine
detroit
enormous
cly
dna
dip
dyle
fits
fettes
gh
gy
ganz
jur
kel
kling
lew
leland
mea
rang
vic
zu
##gic
##dra
##mont
##kn
##bell
##zlo
##inn
##aney
##oring
##east
hallow
weigh
hector
begging
israel
rehear
shaking
##leone
##iments
forb
livin
##cht
##aming
abort
neo
neph
suc
chet
atta
plates
examin
sector
capital
deer
demo
arta
##umn
tram
brut
brady
##resp
quote
env
molly
peo
marquis
##the
peopl
intended
remain
remains
imper
befo
##agon
madison
swann
##shot
handled
momma
##iley
daught
##aches
headquar
schem
cheated
appl
warp
polish
accused
edu
driven
tennis
dealer
hundreds
meters
invitation
presence
worrying
gene
skill
##ibly
coron
corleone
milo
vienna
dreamed
paras
salary
bald
##hhhh
sentence
raoul
winner
instant
instance
instinct
paine
filthy
##grim
drawn
profile
tested
dressing
squeeze
flynn
annivers
steps
dropping
wallace
##gnan
assholes
chicks
garrison
returned
##gedy
196
sailing
campa
locate
bike
oppos
selfish
pigs
laser
laszlo
managed
blocks
construction
flattered
suffer
taransky
product
appearance
skinny
porters
failure
baltim
generous
dylan
technical
slave
kirsty
santos
sharks
ignore
stewart
salesman
typical
expression
##nolds
dolores
clarice
radiation
ult
reservation
houses
corporate
torture
##craft
laundry
crisis
##birds
exercise
commercial
neighbors
reynolds
sacred
assault
interfere
ralph
orleans
clyde
artagnan
headquarters
23
bian
bishop
dive
dough
gin
gag
ike
ivy
lest
luthor
nas
niece
pul
pud
tis
##uous
##ridge
##gra
##lot
##wire
##miss
##fun
##xual
##ís
youth
##era
whi
toe
##llie
##ital
doo
inse
goof
reject
##ashing
shith
steel
stress
lick
lilly
lila
##ooo
##outs
socks
alley
chum
atmos
sav
frust
manif
lov
letty
comment
complex
maurice
spect
##itts
arc
concept
shoulder
##berg
fax
prote
##thew
carr
carol
preys
believes
##aph
##ueger
##agen
listened
boyd
coupl
##izes
stays
stops
flip
phas
phones
matthew
runnin
prett
tragedy
dict
slipped
crus
crank
cramp
chef
cheating
resign
pup
walkin
edgar
contra
deals
breaks
captured
franklin
ending
scale
counts
earn
earned
depart
calvin
calcul
parr
deliber
ridd
consci
indust
##encer
wears
grey
papa
curios
##ival
hairy
martha
ernie
buckaroo
keith
legit
testimony
classes
addison
frequ
fixing
trevor
penn
pengu
protection
entit
doubts
rocky
strict
convict
convention
involve
apology
crossing
philadel
histor
adventure
cecile
maintain
estab
wilder
prepar
violence
splendid
suggestion
clients
victory
wilson
praying
heavens
krueger
hooker
pilgrim
hostage
incredibly
booze
nicole
annab
chairman
snakes
ronald
whadda
whaddya
stephanie
arrangements
revolution
cuba
kidnapped
flew
religion
abandoned
narciss
diamonds
cripp
wandering
survived
version
misunderstand
shakespea
mysterious
clinic
influence
valentine
avenue
cocksucker
jedi
twombley
maranzano
nephew
eduard
anniversary
campaign
baltimore
preysing
shakespeare
cried
cerem
dur
dap
dix
dug
etern
ful
fuss
jeep
kal
kong
kip
linc
mim
mult
mush
nation
nuth
nerves
od
ooh
rop
rans
rio
rotten
ripper
sou
sic
sittin
tin
vom
vod
vouch
woody
##rome
##rod
##nic
##cing
##cow
##oid
##lar
##lane
##bod
##zu
##aton
tox
##ito
##itated
ink
inject
ingen
belly
goal
reh
donald
stark
liv
##antine
##ament
abuse
ability
nex
neut
##uries
sull
##ello
anytime
##geons
##uled
##igo
uses
orch
##osi
mayfield
maggie
callin
bran
brun
brush
quaid
envel
huey
bund
marie
marvin
##ables
drank
unde
leck
gru
grat
poker
sweep
couch
supply
##atched
pervert
acted
##mann
handy
moments
travis
##eyer
davis
impact
##hne
dipl
interp
interrog
cheat
owned
reads
##phia
terrance
shove
repe
repub
tries
businessman
controll
compass
senate
surface
surgeon
##onscious
prize
sketch
column
powell
answering
depend
parole
murray
murphy
bait
hush
deton
##enced
synd
tale
basis
collar
retard
retire
films
rudy
ruby
artie
natalie
merrick
mistakes
bothers
memor
propose
worthless
media
##onym
exception
sunny
purse
damaged
seventh
entrance
creator
##hold
iris
laying
feds
argon
limo
limits
borg
demons
requires
##imental
sucked
nik
drawing
lemon
slee
capable
seattle
scottie
generally
sympt
symbol
dynam
concerns
harmless
combination
dragon
narrow
assigned
##aaaaaaaa
quality
persu
cathy
mallory
cowboys
blanket
associate
houston
insulted
loyalty
complaining
spoiled
betrayed
nixon
adjust
engagement
achie
producer
procedure
traveling
alcohol
cindy
deposit
escort
lifetime
territory
rosebud
voyage
laurie
individ
halloween
deliberately
entitled
philadelphia
annabelle
ceremony
daphne
lincol
vodka
republic
ari
aaa
barth
cass
dub
dates
dime
eri
eag
eug
fats
kl
kings
mouse
nan
nee
nort
nano
pend
pile
rear
rice
rats
riot
tire
tune
wrap
##rad
##iar
##sm
##hole
##list
##lah
##yst
##foot
##xim
##atter
##anor
##otta
anest
##ete
##omy
hap
wee
meek
indy
reilly
##imeter
sti
##iring
sod
sul
suite
asian
outer
chim
chose
##icles
##icient
seein
worn
somewh
##usi
##iled
manner
lobby
##ulz
##ulated
comic
comedy
willow
##endous
amour
amber
background
clerk
arrow
connie
troops
sorta
fucks
bru
enzo
aft
mock
bub
marla
fagg
unre
unlike
pride
leavin
undercover
carla
carbon
hip
scam
harris
##aging
madman
elena
emil
adorable
smiling
guessed
##izer
stayin
active
actors
ideal
##ordan
disaster
disgu
diary
fog
casab
charity
charged
schulz
insp
slut
sixth
excit
compan
barre
gabe
giv
desmond
surr
opens
presents
relatives
halfway
fuc
ski
simpl
similar
hunter
delicious
bobo
bravo
consum
conspir
bailey
burt
sylv
darn
regan
define
raw
raising
eleph
owen
incon
belo
draft
offices
officially
subst
maxie
distress
##visor
lessons
penis
affirm
##ysis
protected
costume
jungle
hopeless
frederick
deeply
jumping
oui
studied
prisoner
cigar
advance
boxes
rolling
##dale
coward
violent
suspected
lamar
delivered
properly
cameron
stanwy
gifts
##chester
hooked
spirits
marshal
porch
obsess
observ
potato
borrowed
dumped
tips
wynant
status
criminals
weakness
##while
gamble
bonds
cooperate
referring
hollis
magnific
punish
stevens
bertrand
queer
sophie
##keeper
communications
lapl
troubles
dishes
leng
registered
twisted
initi
bloom
remarkable
chrissake
littl
merely
pacific
rothstein
contrary
task
molec
lauren
mckenna
vietnam
structure
nichol
sloan
paradise
cocktail
kendall
margaret
opposite
establish
envelope
lecktor
lincoln
affirmative
200
80
ai
ack
bid
biz
bisc
cia
dame
dif
dante
eg
ess
egy
echo
gym
hunch
jere
jade
jordan
lor
lane
lama
miz
nay
oo
pope
penc
pipe
sust
sout
sins
tide
vow
vern
vader
wack
yield
ze
##uary
##pot
##pet
##put
##gi
##gage
##cie
##cour
##ox
##oes
##hy
##away
##lad
##lead
##yy
##yard
##mouth
##meyer
##kind
##kers
##bu
##bie
##fus
##zak
##ji
##inates
##reet
##oty
##otes
anch
anonym
##eaf
weep
##ays
ing
inner
##arn
rein
sheep
shitty
donny
sting
lion
myth
##ighty
justin
neve
##urate
##rix
shell
welles
uptown
##ications
plague
##rack
ohio
worries
alas
##ros
##rose
telly
manh
manners
loom
##artz
##ifying
seats
select
##ola
capit
causing
defe
maude
oklah
##ounds
spin
spencer
##umber
fuckers
needle
engin
cozy
coco
roach
fag
killers
ware
unex
prime
##pton
lean
previous
precious
belief
scum
pole
swana
##assy
monica
perman
understands
##shire
phoned
secure
morgue
disks
serving
tracks
imply
##mmmm
sons
beavis
schol
##action
glen
breed
wars
string
strate
commod
probation
eddy
damnit
useful
christine
situ
sits
sleepy
promises
honored
hitler
scares
##rence
gracious
colon
benny
bits
certific
##negan
lighten
humans
riddle
conscious
bai
bapt
india
burger
syn
defensive
collins
retrie
unconscious
choir
horiz
martins
keaton
sides
radar
transmit
classic
medication
naive
smaller
squid
psychology
darkness
operations
birdie
suns
annoy
laughs
severe
lowell
knocking
mackel
normally
trucks
practical
cooking
cooked
torped
romance
##rington
discussing
halluc
circuit
castor
jammed
community
bears
cameras
yelling
malfun
sara
investigator
wheeler
mexican
knox
boost
attracted
technology
galvin
receive
organic
banana
necessarily
suspic
wasted
scientific
contracts
matches
steward
effects
nuke
engineer
separated
latest
receipt
mortal
knights
seduce
othe
terrorists
debate
religious
chemical
thrilled
resistance
initial
chrissakes
benefit
graduate
racket
wigand
wicked
tremendous
##ouraged
bracelet
greetings
exhausted
philosophy
kristen
almighty
dawson
forbid
bianca
lestat
shithead
manifest
conscience
individual
erik
casablan
beloved
stanwyk
magnificent
laplante
length
egypt
jeremy
vernon
oklahoma
mackelway
300
400
75
au
ax
ara
ape
aaron
bunk
bingo
cin
cord
cunt
fence
foul
gino
hig
lle
lime
moo
nit
nigh
posed
pulse
ranger
rode
sank
tenth
wen
wiz
##ien
##iven
##nat
##gues
##oir
##lers
##wald
##mail
##mund
##bone
##flow
##11
##erman
##inity
thes
whip
##esome
##etor
##itious
##omer
##omet
haf
haunt
##str
##sta
##store
##state
##uties
beet
##idal
##arine
isol
goat
shed
##see
donna
stens
liver
##char
myers
cany
butler
allerg
##rial
##ryl
outs
##nda
##ppin
whores
plot
plug
plumb
##rah
alo
alab
alib
##acks
##istration
sequ
orph
##osis
coma
cau
mau
spank
spons
clues
aroun
##umph
broth
##cap
##respect
copper
root
faced
waves
wagon
unic
unique
##thorn
dram
lovebirds
helic
leia
leopard
intim
integr
prey
scumb
hart
hobb
hockey
puttin
oldest
swine
sworn
greater
smashed
remembers
laval
monsters
perpet
##fton
flame
phrase
nicely
mora
disrespect
tragic
diag
division
ahm
##mmm
slea
slap
resent
apply
##phin
pub
questioned
accurate
triple
trigger
triumph
compare
award
metaph
worlds
breaker
resting
colony
bitter
complaint
deposition
blackmail
feller
fellows
hearts
##lines
winston
filed
##ieth
##iety
##vided
micheal
profit
jefferson
merc
fools
fooling
heav
explains
proposal
worthy
nav
pals
landl
landon
##zech
##ippi
batman
absolute
covering
lugg
affairs
smelled
laughed
motion
motive
practicing
cookies
clubs
carlos
jaw
##force
returns
westley
accepted
angels
modest
##attan
fiance
berke
shave
bien
ambrose
programmed
suggesting
communist
contacts
specif
##burger
tricked
hostile
pillow
suffered
queens
wheels
production
hillyer
##itzer
weathers
lifted
issues
##leton
crawling
scaring
shhhh
gambling
combat
rubber
vault
mountains
holland
reporters
extreme
unfortunate
katharine
thorwald
citizens
chapter
barnett
trailer
assumed
nuns
candidate
shelter
panther
nazi
nazis
abandon
sweater
patchett
ribbon
beckett
porno
results
invented
pooch
toddy
alpha
tools
dodge
mantan
factory
determined
gesture
razor
brenner
##levant
bodyguard
satellite
privilege
announce
schwartz
tattoo
werewolf
vaughan
episode
lewis
curiosity
strictly
nuthin
ransom
vomit
gruber
syndrome
eagle
eugene
##smith
loomis
engines
casablanca
llew
scumbag
28
bain
bio
ced
cater
cities
czech
dot
dary
dread
eld
furn
fiction
fisher
gast
gek
hans
kry
kitty
lug
mong
mick
nag
nud
pod
pry
pip
pond
pitts
rage
rational
tee
tuck
tina
vent
vicious
wired
wrest
wisd
##udy
##uder
##rd
##pers
##cast
##hand
##wer
##walk
##mes
##bing
##bac
##fore
##fuss
##zed
##eria
##anes
whoo
whales
tops
##lla
##reak
##esy
##isco
##itors
hald
becker
reun
sham
##leine
noth
noon
nove
noises
##imm
##immer
##uster
##omew
canad
sov
sober
abd
allison
##rib
sheet
aspir
##ears
chek
chairs
##iel
##rain
sauce
safer
mans
lovers
guid
guide
sefton
orson
orbit
##olved
##olomew
debor
mace
##ounded
amate
amanda
backup
backwards
clot
clip
ark
arrog
conse
##bey
joh
needing
shoulders
hears
quince
heller
##emann
enth
envy
afte
mug
muff
mueller
hull
mollie
coin
marion
roc
farew
killaine
unkn
prin
pritch
##abet
leak
underest
intense
waits
believing
becau
helpful
scoo
scoop
##nings
befor
pointing
hobby
##angle
eli
smash
smugg
##iple
perm
flea
flood
pho
phy
matrix
##onda
sera
maker
##quet
tracy
impro
asses
casey
meetings
charl
funn
##acity
slam
crown
apples
applic
reco
glory
readings
breach
brenda
##phere
finch
puzz
questioning
drift
christy
compens
comprom
awk
awesome
bars
tense
gib
setup
released
copies
colors
corp
fights
speaks
broom
explo
passage
infant
budget
starving
starship
diner
forgiven
##elyn
peters
messy
sentimental
basil
##lined
curt
##ivan
errand
muscle
subway
subpo
merlin
visual
explained
fairly
addition
palmer
lando
toto
drops
blows
posit
marked
feature
operating
larger
sherman
july
##box
valiant
cryst
brig
judg
creative
verd
busting
lyssa
entered
kicks
wires
torn
##anoff
roman
prisoners
sanche
197
##ovan
hyster
rounds
begun
bearing
opposed
photographer
frightening
approve
randall
custody
electron
peaceful
##burgh
formal
nigga
fantas
audrey
dancer
feeding
searching
scram
obsession
auto
autograph
##ography
technically
creeps
oliver
agreement
austral
austrian
description
suspended
sources
magazines
arrangement
reveal
anythi
oooh
kiddo
disgrace
psychiatric
latin
commissioner
dummy
jacques
##avitz
primitive
dentist
tables
radiator
therapist
acquaint
gregory
supre
interrupting
waters
motorcy
hypoth
moscow
options
explosion
dwight
whistle
crushed
education
snoopy
regarding
steam
gloves
basketball
literally
atlantic
grunemann
coordinates
independent
passenger
buddies
jurisd
zuzu
scheme
pudding
penguin
diplom
dynamite
bartholomew
faggot
alabama
unicorn
llewelyn
gekko
chekov
deborah
enthusi
farewell
unknown
pritchett
subpoena
sanchez
38
32
42
aah
aids
bot
bam
bent
bass
bats
bryn
baker
cough
ding
fount
kre
kra
kore
lant
nea
nash
ore
ole
pam
rus
rise
sut
sway
sang
satch
upper
vag
vanc
wip
wins
zavitz
##uu
##uge
##uum
##rr
##roth
##rors
##rating
##pack
##iere
##sen
##gus
##grove
##cake
##cles
##cute
##ok
##hard
##ae
##aire
##life
##lict
##ded
##wä
##mark
##bow
##bler
##fill
##zon
##zil
##zzy
##jo
##eri
##atown
##attered
##onia
whew
##ingly
tol
toys
##orr
##ester
##oto
##oted
##etics
habits
##stick
dock
inher
heel
bean
##armed
reception
shin
shan
shack
shine
shuff
##aline
##chair
##amis
##ctic
##tery
choo
chop
chess
##ppers
reass
##usions
sax
sabot
maniac
guild
exhib
user
##arte
seed
##oses
##osure
mah
ammo
amnes
amusing
spi
spying
spats
spray
spagh
twent
cleared
aramis
##ums
tramp
##osexual
aggress
workers
quitting
##emm
enlight
enquir
hugh
coy
maroon
marlon
fazel
overs
wai
wax
blaming
##elope
writes
##tage
lech
daylight
uhura
scand
kindness
afterwards
mini
els
emma
missus
lotte
guessing
##uded
##anks
craft
yacht
madeleine
traum
impo
div
##pected
slice
crunch
cruc
##iana
hardware
chrom
bret
##phis
puppy
##erton
accent
accus
edmund
drif
drivin
content
compos
compared
payment
mete
senor
surf
surve
schools
##ngler
relations
booked
grain
grabb
obst
##otte
benn
bites
##gins
certified
parry
dela
airpl
samples
brazil
sends
pulls
fireman
indo
heartbeat
behave
darrell
darryl
touchy
raid
eleanor
owl
incre
##gruder
beaten
smokey
smoked
surprises
expand
reporting
musical
cleaner
fooled
transl
memphis
proposed
gently
##zzo
straighten
ballet
teachers
imagined
tread
cannon
##aaa
destro
penelope
superior
sunlight
sherry
meantime
covers
purple
sticks
sticking
brick
sandro
##cript
strikes
buster
kicking
wives
iron
irre
solar
romul
sanct
philip
visitor
198
193
arguing
girlfriends
homes
homosexual
estim
hypo
directions
publicity
violin
risks
suspects
ambition
suggested
recognized
contacted
sensors
frighten
buzzing
grounded
electro
sarge
tracking
rented
physically
nicer
buttons
massive
creek
customs
furtwä
jacob
taxes
fingerprints
hamp
hamilton
requested
identified
examined
graduation
originally
reckless
frien
poisoned
emotion
emotions
witches
servant
cosm
jonathan
effective
climbing
nailed
approaching
planted
facing
dispatch
engineering
kilos
napole
carpet
lizard
dumper
pierre
include
purely
analysis
picard
picnic
reverse
comrades
primary
embassy
250
developed
negotiate
chewie
fashioned
vicki
competition
institute
institution
andrews
stamps
december
batteries
sandwiches
graduated
ignorant
koessler
delighted
negroes
fortunate
rmph
convenient
possessed
##lusive
yankee
intentions
thrusters
klingon
envir
rehab
sullivan
bundy
symptoms
ariz
conspiracy
ackn
bizar
pencil
southern
anonymous
manhattan
unexpected
malfunction
##natural
canyon
helicop
moraes
luggage
berkeley
wisdom
scooby
awkward
curtis
fountain
lantern
amnesia
spaghetti
fazeli
furtwängler
31
34
48
70
90
aa
bou
baked
banged
ci
cz
cer
cum
cows
dell
dess
dmit
ein
econ
fink
foss
gw
gates
hound
hutton
jig
jelly
kau
ling
lid
lones
om
pg
pms
rou
ras
ts
tro
tum
ugh
wud
yon
zira
##uest
##uana
##rin
##rus
##rina
##pace
##not
##gate
##corn
##lusion
##dro
##vest
##mine
##kh
##bes
##fman
##zi
##zard
##jah
##ouver
thie
##inated
theories
##anity
##onment
toes
##lling
##llor
##orc
##oran
##order
##esus
##iser
##otics
##eab
##itar
hamm
##vell
mee
meyer
rebec
anderson
##asis
shou
shoul
donít
donovan
##lem
knots
nost
noir
stair
forth
lil
##alf
##anta
##illance
withdra
allen
##rig
shep
sug
outrage
chains
chips
wells
anyt
reactor
plead
ohh
##unning
worf
worship
alma
altered
lookit
sayer
sai
manchester
guilt
exorc
##ifton
##osaur
##olo
##olis
##olph
maze
amen
spotted
twe
twins
clare
clifton
conrad
offers
offended
bras
happier
bold
##caid
quinc
proved
provo
betsy
##employ
##emois
enid
enri
coha
cocon
bully
pepper
pecul
maria
rogers
overr
blake
unst
unemploy
##abl
##elius
##ffe
unders
lovey
mustang
hardy
harbor
hoff
mademois
kindly
smack
loth
understudy
lazy
##perd
players
##orde
tomb
craz
disco
dismiss
serves
daisy
dieter
meets
insul
inspir
cheers
residence
resume
beings
puke
watches
repair
attic
drinkin
eatin
geoff
relative
capture
evac
evolution
restra
skirt
highest
patron
brock
##gina
delmar
airline
closely
ridge
##encing
freeway
gladly
regula
louder
##coat
strain
chopped
horny
filth
norville
rufus
redi
hairs
haircut
paula
bitches
absence
safely
exped
expose
exposed
coffin
winds
windham
locks
maxwell
merger
visa
jerome
reflect
lands
prototy
duh
psychotic
popcorn
sells
##ippe
informed
penal
spoon
operate
stepped
superher
attacks
carryin
seam
denied
quietly
rocket
##teenth
detectives
torrance
massey
jae
pissing
visitors
fortress
possibilities
199
195
bombs
campus
estimate
talby
angelo
castro
silent
williamson
violation
fires
ambitious
communication
holiness
nigel
photos
grounds
towel
vacuum
hookers
pilots
antic
melt
conditions
frog
##ugged
produce
physics
danced
potential
freaking
nickel
portra
decisions
speeches
autop
symph
levels
pigeons
cracked
organization
cockro
hawai
disturbing
disturbance
pregnancy
lungs
whaddaya
cosgrove
jonah
cornelius
employee
kincaid
talented
ummm
painted
facility
recommended
katrina
##backs
removed
phillippe
spooky
lecture
creepy
favors
defendant
dizzy
gump
1000
kentucky
panties
priority
transferred
lombardo
slightest
nyah
international
bunny
chinatown
pentagon
battery
culture
automatic
accomplish
prospect
infection
octo
flaemm
sacrifice
sooze
sincere
puppet
slaughtered
wealthy
##osaurs
containment
stubborn
##ulsive
rangers
rehears
succeed
brutal
atmosphere
arcade
coupla
narcissus
dixie
neutral
interrogation
compassion
achieve
nanobot
meeks
scholar
strategy
sunset
wizard
hafta
allergic
alibi
orphan
navig
gaston
lugosi
reunion
november
vancouver
##hardt
meteor
surveillance
napoleon
environment
arizona
acknow
bizarre
rebecca
quincy
cohaagen
peculiar
26
911
aly
aster
cort
dart
fame
fian
fans
fetch
gren
gina
hong
hence
hating
hicks
iced
jude
keen
kob
kinky
lin
linger
lena
maine
pon
peep
pne
rit
rend
rash
rene
ratt
rena
ratched
ske
sess
session
tib
vib
wipe
yak
##uate
##rill
##pan
##piece
##iqu
##iya
##nik
##gia
##cet
##card
##oons
##apt
##lene
##leaf
##dom
##dog
##eve
##wall
##west
##weed
##mart
##bat
##burn
##far
##front
##ourage
thread
##inter
##atin
##onna
##inging
toky
##llis
##rection
##enstein
##enmeyer
anton
whatiya
##oman
thatcher
webb
beans
beating
golly
rebels
##ased
donut
##lee
##cken
nolan
##imen
stir
stif
stations
##aly
##chm
myra
mysel
##cel
##ammit
##ooke
##illac
sox
sock
soil
abbe
butcher
gett
##uri
##cts
therefore
gotcha
##ria
asia
outla
chili
##elli
react
##opher
plato
alter
alto
##estra
herb
herbert
teller
maneu
everett
##istics
expe
meanwhile
##olve
cafe
cape
cavi
mayb
arou
arson
arlo
trim
joker
aga
proves
##ember
gonn
muc
hug
peck
marr
margie
rooney
fare
overp
overl
overnight
wald
happenin
blaz
unlock
undressed
leather
levi
caro
##ortion
remote
listed
grou
scal
scored
scrap
harass
harrison
harvey
poly
putter
swamp
minnes
elij
adrian
##arez
partial
lawn
label
remembering
##shop
flirt
phant
##ciples
mature
busi
crabt
crabs
morn
disag
display
minded
##quer
daily
##ocks
##aces
headaches
schu
slack
slick
crimes
owners
watchin
##nerable
##ogue
##erts
accuse
tribe
compound
awright
personnel
barney
payin
tennes
dealt
deserves
##ancing
presum
##rete
childs
eighth
bullsh
##nov
millie
columb
##otto
##iba
corny
corps
huntin
confusing
##aza
starters
dinosaurs
petty
perfume
consult
salvy
burnt
behold
behalf
##ologists
tapped
regulations
rafe
collea
retreat
curtain
##ivity
pains
drapes
esp
pauline
error
submit
merch
bucket
distinct
extension
testing
##ervo
discreet
refused
midge
proposing
##zzzz
straightened
felson
hospit
duval
bosses
fixin
images
##ippin
##ippers
##ergast
quicker
steering
lund
centuries
float
##boat
catal
damone
denver
upsetting
creating
verbal
treaty
lyin
ringo
ringing
paperwork
vanished
deeper
solution
apologies
respectable
torch
carlton
peaches
nurs
theresa
discussed
cecil
occas
ninth
circus
campbell
belonged
joining
exceed
silk
shares
programs
rains
continues
filling
prayers
approxim
kron
doris
towler
lindenmeyer
melvin
heroin
heroes
crashed
francs
wheelchair
karla
faithful
balance
massach
lucas
bella
magician
intellect
dyin
wounds
brandy
arrive
authorized
assistance
identification
characters
spiritual
shari
precog
talley
existence
lung
cuervo
friggin
tuna
cartman
broadway
celebrity
pearls
representative
##eshit
logic
maiden
albania
butterf
alike
cubans
kathy
thorough
patterns
pumpkin
rennie
analy
bacon
junkie
##www
kidnapping
mobile
tube
cloak
blessed
rexroth
activity
vari
lipstick
paranoia
chemistry
injured
candles
electricity
commitment
##loaded
montana
promoted
##weight
cruise
passionate
fletcher
entertaining
cadillac
hiring
hirsch
despite
relief
relieved
sparrow
constantly
bourne
bourbon
contrad
pursue
measure
alphabet
everythin
sinking
traditional
whacked
iraqis
teenager
cheek
gloria
hustle
tuttle
selena
sssh
scenar
lynette
guinea
assembly
acceler
breasts
examination
daughters
parasites
goofy
spectac
legitimate
sicily
gratitude
pendergast
somewhat
disguise
inconven
anchor
warehouse
certificate
horizon
stensland
sponsor
dramatic
cedar
furnit
haldeman
consequ
underestimate
phyllis
gibson
judgment
hysterical
supreme
jurisdiction
brynner
aggressive
scandal
composer
airplane
helicopter
dessert
dmitri
thieves
##eabouts
mademoiselle
jaeger
anticip
october
alyssa
fianc
tokyo
minnesota
elijah
crabtree
41
auth
aub
bate
bos
cuff
codes
dere
dorm
dated
dash
dork
dutch
ec
eject
fuse
fries
gem
groom
hink
hend
horm
ist
jor
jab
jag
kast
lag
lud
lamp
lump
mt
mol
mour
mph
nup
ost
pom
pus
pame
pace
riz
rating
rasc
sip
tang
ties
vest
xxx
yi
yer
zor
zoe
##cal
##cott
##yler
##eur
##eers
##mp
##mi
##mb
##fol
##fire
##erd
##inck
##atra
##atures
##atics
thei
##anian
toon
todd
tobac
##llian
##oting
anoth
##eable
##edith
whatt
##itan
##itas
##itent
##itable
##ometer
haus
haird
inna
inquir
heine
##idt
##idote
##arms
goss
rek
reib
rebel
##sex
##keep
notion
##iman
stag
stable
stoned
stroll
forms
lia
yourselves
##alt
##chy
##chief
##chai
##amas
neural
##ading
gott
##river
##riger
shells
asyl
chad
##ndon
atomic
##opath
##icates
plants
seeking
worl
worley
worms
alon
##oren
saints
##ilated
manip
loaf
##ulty
##ifies
comed
##olet
causes
mayh
maf
mare
amuse
spa
spice
spite
click
arnie
arlyn
conk
convert
trous
everyt
brody
brooke
happily
boil
hearst
quad
proven
probe
afric
marv
mariet
role
godfather
faking
killin
overd
overwh
##issa
##issy
##issom
blair
unl
##elance
wrist
##tag
helena
intri
longest
uhm
remar
grissom
scre
finder
harsh
harlin
##pleas
courth
mint
minim
minimum
elimin
missiles
perimeter
##shaw
actu
flaw
##inton
deadly
##iah
handles
moms
##ilda
##quire
##eeney
improve
assess
intercour
fold
casper
beau
##acher
resour
hurric
recons
glimp
finance
sounding
polar
strand
accoun
drives
cuts
##ictable
contamin
barrel
payroll
pickin
pointed
##nger
prescription
frankenstein
bookstore
##retti
togeth
childhood
teasing
decl
genetic
graves
tequ
text
simulation
counted
bench
corrid
corresp
hunh
complications
signor
explor
confusion
depth
lighter
##iera
sickness
starve
clem
braces
chancellor
movin
saloon
messing
burst
burden
burgel
##encies
sorts
snuff
touches
greedy
rae
element
election
retur
choke
curly
cursed
conclusion
concrete
dragged
richie
expense
exposition
exposure
meredith
distant
claws
legally
reform
refresh
refriger
midget
transp
kingdom
proposition
balloon
psychological
freelance
blowing
destruction
penet
penitent
feather
privacy
steed
hmmmm
juan
lux
luca
geek
condem
##bok
ordin
tougher
bribe
illusion
documents
verona
##bridge
macfar
jewels
ironic
sadd
amazed
respected
temple
carlotta
fatal
cigars
gerry
gerald
julian
halloran
advanced
devices
rolls
circuits
mcca
horseman
islands
directed
gardner
quarantine
cellar
cellular
risky
loading
chaos
bowler
senses
delivering
placed
russians
creed
pushy
innoc
equal
equipped
panes
antidote
investigate
investigating
niggers
blocked
accounts
fields
capacity
constit
construct
##ega
archie
pinch
potter
rosa
rosen
freaks
freaked
ramona
attraction
ashes
pigeon
tearing
goddamit
simpson
rabbits
purposes
angie
grades
interviews
interviewed
satisfaction
gambler
skye
eastern
horseshit
##check
toothp
cosmo
broadcast
celebration
cornwall
employer
employed
employment
domini
qualified
rhy
disappearance
immediate
clayton
encoun
dignity
ruining
immig
immort
kimber
fascist
lednov
monkeys
fraud
barnhardt
hoover
kidnap
vital
dewitt
scheduled
cabinet
vincen
##xxx
meals
oscar
wolfi
activities
applejack
tossed
swinging
tanks
underwater
liquid
bulj
unpred
narcotics
avoiding
##lvania
pitiful
sweating
replaced
explosive
dwar
shorty
dowd
drowning
counterfe
thumbs
pursuit
demonst
everythi
georgia
tammy
procedures
delightful
waddaya
writers
affection
volunteer
gillis
vinci
patriot
farther
utter
##stitute
gruner
depression
mandrake
grammy
alternative
joanne
##donald
##borne
sofa
channing
schmuck
schmidt
struggle
struggling
obliged
instrument
instruments
athos
bronx
interference
wrapped
heights
prosecut
ultimate
nasa
crusher
crippled
fulfill
repeated
controlled
persuade
northern
anesthes
excitement
obsessed
potatoes
nicholas
wacko
defeat
implying
suspicion
stewardess
integrity
diagn
specifically
pittsburgh
clothing
scrambled
sutphin
shinzon
lechter
edmunds
bennett
hampshire
kaufman
lonesome
enrique
lothar
expedition
prototype
portrait
autopsy
pneum
ritual
tibet
stifler
caviar
groups
disagree
schuyler
tennessee
approximately
scenario
kastle
pamela
rizzo
xxxxxx
tobacco
gossip
reiben
asylum
african
marietta
overwhel
intercourse
hurricane
glimpse
correspond
macfarlane
cornwallis
27
44
85
ais
ale
bore
bah
bial
berg
bode
cod
cel
cbs
dak
eager
fist
fib
feast
gil
hed
ire
ive
ils
kam
kitt
lined
mone
mead
mild
munch
motto
nsa
peak
pino
penth
rud
ssh
sane
tou
tes
tid
tucker
ud
vu
vet
vood
vald
wisc
wlad
zomb
##uv
##uett
##rame
##rise
##rari
##point
##sp
##nard
##nia
##gir
##ollo
##actor
##lay
##you
##ythe
##dn
##dan
##eous
##ext
##wi
##wanda
##mor
##mers
##bro
##bul
##fs
##frame
thre
thos
thigh
##inite
##atore
theoret
##anas
##anium
whiz
##inge
tog
##reg
##reh
##rels
##eng
##enix
##orp
##owitz
ank
whatsa
##etz
##itations
##omi
##oming
##sten
##uted
doct
inh
inapp
heath
heming
heels
bei
beware
bemb
isab
goeb
##ghy
reph
onc
##asm
shir
shipping
##lection
nob
##imo
stut
stun
stree
stern
stakes
stella
lillian
yoursel
##ala
##verse
mys
canada
##eem
##ooper
solo
nels
ally
alleg
##aded
suic
chea
chaz
chump
##ppie
anyways
reall
wholes
##rag
righteous
alg
someo
somew
herman
goods
##ilizer
manual
gull
##gey
seg
##enda
caps
deed
dele
debi
maca
spic
twin
cluett
armit
arctic
##umes
conor
conner
trop
trinity
brid
brass
boz
quint
enh
enforce
moe
bugging
marine
marco
roston
faerie
bluest
hash
pris
drama
##fferts
underne
helms
lefferts
carson
carmen
intu
becaus
firs
giron
groo
scent
scul
hollow
madmart
sweeney
mining
minus
emer
empt
keeper
missile
smythe
suppo
remembe
lax
##gether
realistic
perry
##rowave
acid
##she
##shell
##shine
##resser
##ression
acts
##uda
##uding
##udge
##intendent
tomato
disrupt
doneghy
##eya
dai
throu
throug
intercept
foster
household
johns
slit
slug
slob
##active
crumb
resem
resident
roommate
appet
##angeli
hardest
##igned
pawn
shovel
poli
polic
strings
excuses
edition
attending
holdin
turner
barbec
tens
dealers
metro
gibar
deserved
sets
sleeps
promising
relay
reliable
##onsin
hotter
apollo
childish
tease
##rene
lawrence
untouch
colet
trusting
cora
shootin
lieb
liking
signals
explore
explode
confront
param
parlor
##ashi
info
infl
lighthouse
admitted
clement
dinosaur
##etts
differently
humperd
perfor
consid
blacksmith
indians
beha
freely
darned
snuck
regiment
defending
strapped
##arents
sings
uncon
owed
horace
##ivors
smokes
smokin
artoo
##umbled
michigan
recording
claus
extr
testified
##visions
refuses
taping
classy
specialty
medal
kisses
nearby
psychologist
controls
bastald
topic
slowing
superst
superintendent
sunk
elle
humanity
consideration
entry
brien
sandra
sandman
##ificant
##ifications
boatwright
turtle
closes
hopes
neglig
conviction
convicted
publish
cardiac
apologizing
courtney
layin
digest
ladder
greenleaf
footage
screwing
bottles
admirer
bleek
mainframe
circulation
limb
limited
located
datab
esther
mirth
mirrors
cycl
require
posters
sucking
shaft
idiotic
sensible
beard
unfin
terrified
cooch
cups
micro
microwave
northeast
panick
souls
lesb
leslie
karras
rye
travels
traveled
archer
pinta
scrub
obser
grief
##coming
supportive
masseria
belle
pageant
havana
technique
slaves
motherfuckers
authorities
tires
scotland
hamburger
requests
requesting
hawkins
mccord
buffal
switched
represents
germany
taller
existed
ruben
##post
frie
tunn
inspection
servants
stephens
femin
jessie
nails
domino
referred
punched
rhonda
rheya
mutual
wendell
disposal
punished
militia
types
desperately
funds
survivors
groc
mortgage
150
towards
vito
association
sophist
cheerlead
concentration
##ooooo
communicate
mummy
otho
rarely
spells
activate
lawsuit
tanker
injury
shelby
electrical
##lowe
tranqu
morphine
barks
barker
stabbed
slightly
grandparents
praetor
vickie
occasionally
bounty
pooh
dedicated
unable
joyce
georgie
transportation
misunderst
accomplished
alcoholic
masters
infected
tempted
depressing
springs
virtue
favourite
muddy
passengers
dalai
wealth
crooked
administration
dillon
greek
##iciency
debts
helmet
recruited
burglary
stalker
vegetable
gravity
adopted
tramell
coroner
prettier
riddick
preparing
misunderstanding
kalen
toxic
starks
branch
detonation
retirement
klute
chimera
unlikely
companies
barrenger
surrounded
skiing
elephant
punishment
hallucin
initials
isolated
plumbing
spanky
dreadful
krypton
canadian
##ribution
arrogant
phoenix
compromise
crystal
australia
motorcycle
shuffle
spike
enquirer
chromium
brett
grabbed
hypocr
czar
lingk
symphony
hawaii
rehearsal
lingerie
sessions
altogether
maneuver
overlook
phantom
lundega
kronos
massachus
furniture
fiancé
bateman
whattaya
hauser
hairdresser
rekall
conklin
trousers
courthouse
declare
tequila
returning
kimberly
anesthesi
dakota
ilsa
penthouse
voodoo
wisconsin
wladek
inappropriate
hemingway
bembry
rephrase
armitage
bluestar
underneath
gibarian
bastaldi
lundegaard
29
4th
99
ak
bm
bim
bic
bind
bers
bib
cot
cmon
cunning
dine
dors
era
eater
ego
fraid
fier
fract
fade
gt
gat
gand
gown
hind
hick
hats
hoop
ig
iv
ií
jar
jets
jerem
jumbo
ka
kor
kitten
kessler
lent
lod
lend
lounds
morde
nite
nations
nipp
oy
ober
ols
oona
ple
pint
pens
pork
rim
ric
rally
ramp
sven
siz
sissy
tah
tying
vander
veter
wart
wretch
yog
zen
##uf
##uated
##uating
##uji
##rine
##pi
##psy
##power
##ih
##sit
##name
##nick
##gant
##cula
##och
##occ
##ocol
##lind
##lain
##dr
##dor
##wl
##wing
##vie
##mind
##kar
##kaya
##buck
##bery
##bitch
##bott
##bett
##break
##buster
##xed
##zini
##rep
##enger
##owl
##owing
##isk
ano
anat
##eton
##itary
hab
hare
hail
##ereo
meurice
##utz
doi
income
intact
inches
inex
inev
beers
begged
##aria
ree
revers
revo
onl
shee
shred
##secker
##kees
kne
notions
nods
noooo
stim
stoo
stitch
stereo
lib
liable
liza
yourse
##ighter
##anted
canary
##amo
##amatter
soze
buttle
witho
##urer
alla
chast
chops
##elled
veins
##ppa
upt
upside
anya
reader
##opy
##icit
##icut
##icity
plank
plaza
alamo
##usins
saus
lob
loath
loans
##ulating
##igod
timmy
semin
##astly
cav
cact
caffe
mayol
maure
maps
spaced
backing
clair
clitor
##ummy
##bezz
trump
brat
jockey
ages
theme
boards
qui
##lfth
bets
bett
ens
enlist
##ously
hugo
cox
coch
mario
moreover
overre
overst
overhear
waking
##issippi
blunt
blaine
hass
unpleas
##abor
##abilities
thoughtful
drisco
drugged
wron
lovejoy
lev
lef
carn
carrie
mustard
believ
believer
uhhh
newt
grid
grim
grub
gramp
grusins
scuse
scars
scru
harrington
poke
poach
poster
hoot
putt
kidney
swan
switzer
mines
elo
elsa
embezz
keepin
ads
adolf
advert
advisor
mississippi
smear
##wny
##assing
coup
couer
supposing
homeless
monument
realise
careless
acres
##shed
##shead
flare
flames
floyd
deadline
mothers
mothershead
startled
runner
secre
secured
##adys
traced
dair
imperson
assured
foll
beams
scho
schum
schiz
insom
slay
slide
slipping
crim
crop
crude
appleton
glob
chron
finer
finishing
paley
terr
accusing
wonderin
commiss
reprod
excess
trif
tripl
trips
compar
sitter
invitations
deser
picks
presid
reliant
eval
figger
prices
dolls
togethe
teas
##mob
fug
fuzzy
graff
speck
restless
jeopard
skate
skating
skipped
thousan
highland
cola
countries
corbett
hunger
hunters
hunsecker
thirt
compliments
confined
conflict
deputies
passes
calf
parade
lightning
admission
towns
clevel
clemen
aircraft
sweetest
humble
truths
consuel
salon
buys
##ucing
indul
indicate
burg
sybok
freezer
glades
snot
snatch
snitch
greene
waterfront
raven
raft
ravell
streak
chopper
curren
winch
##iva
##ivable
conceal
beli
painter
beatin
rupt
dragging
ordering
##maid
absent
artific
murderers
nickname
michelle
magda
magua
maximum
siddown
extract
jerks
foolin
disconn
discouraged
refill
refund
doucet
radical
transf
livingston
medium
oughtta
squat
squire
protest
protocol
freud
leaders
operational
hotels
superstit
supervisor
##cedes
welsh
sunrise
shermin
juarez
##lared
purch
protective
jameson
valet
valerie
costello
robber
musician
illness
roads
roadbl
appreciation
pressing
chickens
macle
shortly
neglect
woah
##boro
invested
irrit
jumpy
loop
temp
torment
peas
digital
therm
##ounced
mainten
sheriffs
roller
rolled
circle
limp
dumbest
cyber
tales
spacecraft
armor
rising
suckers
shared
ambush
reminded
connections
connecticut
yelled
towers
##works
drawer
##burst
crashes
accountant
keyser
audi
sufficient
moonlight
robbing
archd
commands
obsc
congratulate
roses
rosaline
adams
nicest
portal
##lights
galbra
rumour
slapped
farmers
tourist
arriving
ethel
ethical
ethics
organized
politician
performed
dearest
described
cocky
identity
crawl
moods
anglo
examine
bonap
volume
mailed
pockets
sharing
##chev
sneaking
positively
civilians
cartoon
disappointment
broads
celebrating
climbed
shrimp
cooperation
opportunities
miracles
domin
chased
nuis
meatlo
thursdays
disgust
mutant
180
falco
perspect
mathem
mathilda
kilomet
vulnerable
strangest
webber
cynical
savings
management
insisted
stinking
phillips
mentally
reno
fabric
spooks
associates
responsibilities
crock
printed
dental
partnership
mumford
negotiating
flee
warden
lipnik
chewing
wheres
ferrari
clouds
corporal
lonnegan
channels
journalist
journalism
pedal
pedro
##worthy
anxiety
dudes
moses
optim
warriors
##ebra
becky
internet
surviving
incidentally
entertainment
shorter
sheldon
pentangeli
##ooter
chuckie
benefits
##rams
ignorance
gaining
distraction
professionals
globe
humiliated
fortunately
atlanta
masturb
experiences
conducted
efforts
mothe
salvatore
subscription
occupied
tatum
tactical
independ
weasel
charts
premature
bolt
stalling
exaggerating
pollux
burglar
rusty
##writing
altitude
battal
turkish
genuinely
abortion
attached
baldwin
industry
pennies
pennsy
historical
eternity
multiple
roper
orchestra
interpol
interpret
nikki
##ystock
bubber
sylvia
essential
sustained
alaska
capitol
permanently
torpedo
forbidden
higgins
moore
nitro
thesis
haunted
beetle
##thorne
hobbes
heavily
landlord
fiancee
pipes
guidance
amateur
charlotte
fantasies
hypothet
diplomat
nashville
swayzak
sabotage
treadstone
gwen
outrageous
twelfth
unstable
unemployed
scholarship
acknowledge
kobay
rendez
mourning
mafia
remarried
reconsider
corridor
buljanoff
unpredictable
pneumonia
bialystock
goebbels
segretti
sculpt
madmartigan
clementine
humperdinck
mirtha
unfinished
buffalo
misunderstood
bmw
gandhi
jeremiah
##occup
caffeine
maureen
clitoris
driscoll
grusinskaya
galbraith
kilometers
46
55
65
63
78
aro
aux
bry
bead
bak
bates
cain
cate
cine
cors
cush
cured
cease
dab
damp
drey
ecc
easter
egon
fret
gust
gower
hath
hana
irene
jin
ky
kle
kur
ketch
lain
oops
oeu
omel
obey
pate
pix
pension
rol
ration
sz
sny
tch
tink
tad
troy
tsch
vig
vile
venture
vague
wand
wrench
wimp
wiring
yv
yank
zai
zammit
##uk
##rone
##rane
##rator
##ptable
##ii
##iou
##iving
##iance
##sky
##sucker
##non
##near
##gil
##good
##gio
##gens
##cu
##crow
##oke
##oca
##oids
##try
##hm
##hound
##holes
##lets
##yam
##dles
##eered
##wow
##war
##word
##vas
##vous
##vich
##via
##kie
##bin
##bia
##bath
##bury
##fi
##fl
##fish
##fare
##fied
##jou
##21
##22
##oured
youd
##eries
##inin
##ata
##atically
##oning
##onent
whitt
whipped
whoops
##ington
toge
##lli
##lland
##enge
##orse
##orvich
##owa
anten
##each
##edict
whatso
##iti
##itate
##itel
##omin
##omen
haired
hacker
hazard
memo
##utt
dob
doom
incap
heir
heater
##aro
reek
rebu
relevant
onions
shab
shang
shining
knives
nothi
knowin
nooo
sty
sten
stare
stool
static
forcing
lions
libb
##chen
##anton
##ams
##illes
abbott
neb
nekh
##ented
##inks
##inkle
##urrection
allows
##ctions
##rich
##riers
shelf
chow
chalk
chig
chilton
upst
##ople
##opus
##icon
##icial
##ando
seeya
alr
##roid
##robe
##estic
##estyle
sakes
##uckle
guer
gulf
guitar
##ista
##istent
exter
timer
##ifully
sept
willa
##oli
##oler
caval
caution
mayflow
amish
amused
spear
spont
spinal
backs
arse
##umper
nevermind
conway
caller
thoug
tray
troop
offend
everybod
brung
agitated
bog
boll
workshop
hearin
ques
quant
quaint
provided
##emic
muh
##berman
makeup
hub
cov
coil
coca
bubb
bugger
pegged
marrow
margin
marzz
margar
marcia
marcie
roots
rogue
overhe
wah
waal
wakes
happene
blas
blur
blades
unne
##thr
leav
leagues
##ffer
lever
caring
carlo
hike
intere
intoler
daytime
prel
prev
preca
preoccup
##ape
remot
newcom
otto
grill
scound
harper
harms
poe
hock
hoag
##agers
lasts
lasted
madness
##anging
##anges
listenin
##iche
emm
adore
missy
smashing
couples
suppos
rememb
perk
perfe
percept
acro
actions
floo
flipped
ide
phen
##cipl
##ordi
##orda
tomor
busine
##manus
cracks
startin
diso
disse
disney
yale
handing
mindless
##quin
traps
travers
traitor
camel
dah
impor
divers
divided
assed
assets
interface
casano
sonora
schoo
insight
insanity
sling
slash
resid
reserve
appeared
gla
gland
readers
finn
finnegan
pappy
theirs
terrain
warne
warmer
excal
exclusive
drivers
cuttin
context
compartment
persons
barge
barber
farren
menu
gail
invention
inviting
pickup
hopefully
prescott
geordi
##peed
worryin
booking
halfdan
honour
standards
endanger
##ioces
##itions
eyed
decency
deceased
##aha
restored
restrict
jez
reasonably
mille
colson
colomb
##ibble
policemen
bene
trusts
corky
powwow
patio
shoots
fighters
expects
expectations
confuse
bedtime
password
vibe
caliber
para
##print
infer
infat
infam
infirm
##ensed
starboard
airlock
dino
dining
##etto
sami
importance
follows
firemen
hearted
##upin
taupin
snort
region
##inski
grease
raving
migh
miyam
elegant
shipment
##keye
hanged
incomp
painful
norbert
norfol
reduce
dracula
richards
dicks
dickhead
surprising
millionaire
absor
articles
erase
presidential
native
natives
subtle
mercedes
##ructor
keitel
mistress
explaining
discl
discount
transition
transpor
clearing
propert
dresses
naomi
ballroom
umb
felony
squir
squirt
majority
throws
banker
accidentally
catches
duane
##ippy
posse
destination
marker
pastor
steer
stevie
sunshine
losers
##loc
annual
luis
luci
stepmother
ellis
appreh
purity
chiefs
weirdo
forehead
relaxing
relaxed
honorable
damon
spends
judas
judging
creates
verge
grows
##cribe
turf
lynn
garland
fredo
strongly
motiv
connor
published
camper
stores
saddle
deepest
studies
masry
earthqu
##balls
courtroom
compute
layton
roma
digg
laddie
pisses
thirds
##liest
royce
hallway
advised
mainly
mainland
devoted
194
bombed
circles
limping
bands
mcp
mcmanus
masterpiece
mmmmm
demol
demille
quarrel
prepo
definition
correction
allowing
particip
violated
fiend
fiji
rises
wooden
shaving
healed
rainy
raining
commune
idiots
sensor
threats
niki
prayed
approved
randal
##aires
terrifying
piggy
towels
stationed
lindsey
stanzi
specimen
electri
lasher
sarc
marrie
##burgers
blocking
intruding
flatter
##cuted
suffoc
frost
robbers
physician
ryuji
shocking
marshall
searched
scottish
observe
italians
nicolet
pounding
butts
collecting
massage
mixer
rambo
rambling
venge
generate
generos
ashley
guardian
wesley
##ographic
technician
settlement
olive
dumps
organize
politic
bananas
rigged
issued
terminal
hawkeye
101
ratan
rattle
bonus
mccall
screamed
virgins
lifestyle
severed
skywire
deserted
stockings
civilian
civilized
whisky
jonas
##saw
shrub
claims
claimed
breaths
employees
graveyard
kinnear
representing
revol
reference
references
null
ooooo
experts
gardener
encoura
encouraged
magnum
magnetic
album
typew
aliens
##ilsen
kimmy
crowded
receiving
frag
renew
dusty
vitamin
grayson
blessing
discovery
cheerful
miguel
##oooooooo
european
bartender
pirates
hayworth
mattress
executed
wardrobe
##standing
dimension
pouring
beverage
harvest
implied
gregor
uniforms
dishon
punks
whereabouts
##uthers
reservations
reservoir
mamma
##locks
convincing
hypnot
jenkins
whatsamatter
paintings
pitcher
racing
##weil
philosopher
duffy
cadet
whistler
relieve
suzette
vehicles
drowned
educated
linked
alfredo
sewing
casualty
horns
hauling
currently
trembling
producing
materials
predict
tamper
humiliate
championship
gathering
literature
mysteries
nellie
volunteered
iraqi
prosper
determine
experienced
experiencing
bumped
cheeks
appealing
recovery
glorious
007
hustler
tactics
kurtzweil
breeze
platform
premiere
adults
lynch
sympathetic
corey
exaggerate
lazar
whispering
khrus
##butt
whitman
ditched
fiddle
tackle
tolerate
swedish
assassin
slimy
applied
skills
pupils
parrot
wilderness
revolutionary
cripple
mimi
ropes
brunette
repeating
retarded
sleeper
republican
bruises
unreal
simpler
substant
substance
molecular
molecules
biscuits
gymn
situations
retrieval
torpedoes
wench
hartman
complaints
daryl
soviet
muffin
rocco
principles
elias
puzzle
forgiveness
enthusiastic
krem
nearest
oregon
divine
destroying
irrelevant
romulan
einstein
fossil
withdraw
exorcism
coconuts
override
insulting
penalty
superhero
seamus
meltdown
cockroaches
outlaw
carolyn
columbia
distinctly
nursery
authent
aubrey
minimal
refrigerator
encounter
vincennes
aisle
bodega
irena
##actory
shirley
algout
intuition
appetite
tension
extrater
database
panicked
lesbian
tunnels
sophisticated
massachusetts
anesthesiology
berserk
dorsia
fierce
mordechai
olsen
wretched
inevitable
cactus
overreact
unpleasant
grampa
dairy
global
trifle
cleveland
clemenza
consuelo
disconnect
superstitious
maintenance
archdioces
bonaparte
nuisance
meatloaf
perspective
pennsylvania
kobayashi
rendezvous
categ
dreyfuss
lainey
oeuv
snyder
zaius
zammito
antenna
whatsoever
shangri
libbets
nekhorvich
marzzone
harmsway
norfolk
khruschev
33
56
72
81
800
avi
auction
bom
bick
bery
bix
biff
bied
bont
bino
bitten
bicy
cd
cet
cone
cue
cuc
cates
dic
dag
dia
dott
dunk
dys
dances
dwell
ez
ere
elly
epid
ewe
fou
fen
fet
fences
fitted
gide
hano
ib
ick
iowa
jest
jorge
kaf
lust
lur
leel
lure
lass
laps
lured
loren
mou
mes
mose
muss
mma
moose
nude
nune
nba
oun
oven
ola
oasis
py
pion
pall
pest
pine
pta
pank
panc
pors
poop
rook
rath
sg
sart
sought
samp
tart
tiss
tasty
tender
vap
viz
vigo
wro
wain
wif
wich
wilt
wrig
yod
zo
zach
##uctor
##rust
##riter
##rimin
##pil
##pey
##iors
##ni
##nne
##gom
##gans
##cat
##cur
##cop
##cup
##cuff
##oly
##obi
##ointing
##tore
##track
##hous
##horn
##hetic
##lace
##lift
##dem
##dock
##dling
##eenth
##wan
##will
##weg
##woman
##vation
##vah
##mun
##mates
##master
##muda
##bear
##brew
##bugs
##fty
##food
##xl
##zs
##zes
##zie
##zia
##zetti
##zburg
##jee
##jud
##jesus
##10
##oux
thx
youse
##erate
##erative
##inos
##atu
##atient
##atisf
##ani
##aning
##oni
wheat
whips
##llect
##llium
itch
##oway
##iso
##isch
##ision
anot
ansel
##etting
##etric
hacks
weiss
##ayed
##erella
meg
megan
##sted
##step
##stock
##utions
inez
hebrew
bebe
##idian
ish
##ghead
rely
reign
revel
reinc
reef
anderton
##ases
shade
shush
##sell
##leen
nobo
##chi
##chs
##chess
##chron
##verick
##verty
##eee
##aman
sooth
abst
nept
##ental
allo
alle
allan
allie
##adays
##oded
gotham
##riage
##ribut
outdo
outpost
chu
chant
charent
chipped
chipper
chained
##allel
##allows
##nde
vein
velv
upbr
whol
##oped
##opia
##icia
pliss
##raine
yest
seeks
##una
##unes
alger
nowadays
##inda
herd
fridge
##ilit
manray
manuf
manzetti
lovin
##ucking
gulls
##ulu
##ulay
exley
exits
exotic
##ifred
##ifty
seiz
ort
##osh
##vene
##venir
willet
willard
caf
caen
capp
cabb
cairo
devi
deploy
decker
dejesus
magruder
maverick
amend
amado
amigo
spor
spies
spitz
backward
backyard
backpack
haddon
twink
clive
clum
clinton
arb
arra
arbor
conver
calloway
##bean
##becile
tron
truce
trashed
offensive
sorr
fucki
brides
agai
aggra
##tyard
##cakes
quid
proving
provid
prostitute
betting
betcha
##ouss
hullo
moi
mold
marc
marble
marines
marij
roast
faw
overall
overcome
wag
waving
wager
##issions
bled
bliss
blamed
blender
uni
unle
unner
unnatural
##ablo
drool
lease
byp
wrists
##ffrey
##tai
underway
##ptic
carved
cargo
carries
carav
carmine
intest
mustache
##urek
##apo
uhn
reme
scob
scattered
scooter
imbecile
poets
poverty
##agra
##pling
olds
swat
courses
courtyard
miniat
ministry
elton
emin
shitload
adon
adapt
##asser
cougar
courier
suppor
understan
monk
monstr
perch
peril
acme
##shi
playboy
playwright
flint
flush
flav
mates
deadbeat
crab
morals
dislike
discipl
handwriting
handcuff
thanksgi
##ques
traject
woma
interv
interior
foc
housew
housekeeper
##atern
##ateral
fungus
##acre
schne
insol
slots
slugg
cheery
resort
appar
recor
##ughty
glum
glitch
gladys
harding
readout
brea
brent
finland
babes
##ogen
warner
sounder
opium
##ormal
polo
sixties
liveli
accid
accomm
wonderland
probability
babysit
reply
repairs
repressed
trigg
trials
edna
attended
foundation
contained
contempt
christs
compreh
awe
barret
barzini
farms
farrag
paycheck
tenor
gaff
gauge
metall
metrop
bringin
seth
surfer
beautifully
breakdown
reluct
gunshot
figur
honeythorn
franky
apiece
wished
##retion
teams
youngest
decomp
declar
declared
graph
gravy
##ahad
specia
numb
restore
##nox
skunk
##aneous
colour
##ibu
##ibur
##ibility
corr
corrupt
patsy
biting
broker
signatures
beds
##nec
vivid
##azza
delta
delusion
admitt
starck
airborne
##ettle
sweeter
brakes
forged
peterson
petals
pictu
rider
ridin
riders
conserv
majors
messenger
##ucci
##onto
indig
burrit
burbage
sexually
wearin
driveway
darcy
snif
sniff
grend
watergate
stupidity
elements
curve
install
conclus
incor
belg
filing
filmm
filiba
ruins
secretly
cooling
richest
martial
millionaires
arts
ergo
coffins
subt
subd
profits
jefferies
merk
merci
##ruption
recorded
keating
##tenfuss
sidew
extent
extortion
witwer
healy
discretion
refusing
transpl
classical
statements
medi
medio
dresser
naughty
addiction
davidson
felicia
landed
kissinger
flyer
flynne
catcher
population
michaels
##oula
imagin
##bted
bathing
##gann
strangely
paste
stove
completed
operative
stepping
slower
supernatural
birdson
packs
packard
loses
##restrial
machin
apprent
droid
purg
attacking
thai
forens
##lexible
juneb
cryin
duncan
lowry
seas
seafood
illusions
virgil
denby
denial
denham
dennings
judd
sanderson
##holland
vera
verse
##brand
##brush
reaching
macready
treats
turt
##enez
ticking
alexand
irs
practic
sadie
loosen
cabins
amazes
crosses
studs
##garian
##iliary
masks
courtesy
peach
jules
julius
theres
screwy
cept
witnessed
bleeds
fishy
191
arguments
limous
homo
mcdonald
mcgann
##cessary
boris
hydro
accepting
cycle
directing
talia
angela
required
martinis
castles
models
boarding
empress
particles
addressed
bermuda
woodly
bijou
programming
suggestions
efficient
nosey
holmes
gasket
gimm
difficulty
wilkins
##heim
coop
gifted
january
malibu
elected
equally
equals
equality
panel
ants
judgement
melod
tricky
blockbuster
flattering
conditioning
kara
scarecrow
gordo
raping
archae
pinned
necklace
potent
rosato
grif
griff
grift
supports
colorful
cousins
kaye
climber
climax
generation
ashore
wessex
galahad
shops
hatred
agreem
performing
termin
introduction
hamlet
lisbon
pools
identical
crawled
urge
switching
freshman
snapped
lifeline
skywalk
pathological
##ophone
combined
telephoned
chickenshit
videos
poisonous
civilization
gangs
kiki
appointed
qualify
qualifications
pocketbook
nuwanda
oooo
ooooh
rhode
peek
roderick
claymore
encourage
punishing
albany
albanian
regrets
typically
vulgar
beeper
butterfield
tuesdays
cuban
litter
malloy
funding
fundament
kimball
##culars
ledge
chaper
trading
monkeybone
edwards
grove
spooked
croc
sedated
confessed
sophia
seasons
oskar
osgood
hayes
becomes
activated
terrorist
terrorism
priests
execution
negotiation
paden
various
troubled
acquired
instructed
scratching
guaranteed
lenore
tags
ultim
thrilling
briefly
ettore
hudsucker
puffy
mamm
spreading
unpro
unpack
montgom
cheeseburgers
jennie
settling
banging
barking
pistols
racist
stabil
##arajah
compete
explosives
fascinated
caddy
adjusting
despise
recommendation
bounce
furious
lacking
versus
fruitcake
semple
clowns
scanner
demands
georgina
delayed
distracting
aiding
replacement
travelling
responding
drexl
wadda
##ecou
affected
hatchet
mckin
oakland
patrizia
gestapo
octopus
signing
##wyn
recovered
shotguns
salvage
mechanic
mechanical
mechanism
cinderella
eaves
tatiana
philosophical
sacrificed
hitched
muncie
grassho
puppies
sympathy
yankees
guinan
strawberry
bodyguards
satellites
gabriela
350
dillinger
dialogue
recruit
confirmation
methods
##escu
summers
tribune
battles
laboratory
dipshit
ghastly
democr
geneva
parasite
instincts
insect
frustrated
protein
phasers
cramps
contractor
frequency
involvement
eternal
souvenir
memorial
adjustment
republicans
dubious
sultenfuss
bubble
inspired
companion
consumed
elephants
observation
biscuit
egghead
sustain
##arnation
cocoa
permanent
commodus
baptized
synth
synchron
annoying
chemicals
lengths
intimidate
sleaze
announcement
daryll
elden
aspirin
funniest
recollect
corpse
errands
electronic
russell
saxophone
exhibition
maharajah
twentieth
enlighten
hughes
overseas
crafts
drifting
increase
aaah
boulev
liddy
wudan
clarendon
hoffy
geoffrey
dartmouth
renault
##chmacher
curtains
catalog
precogs
spectacular
derek
hinkley
rasczak
liaison
comedian
marvosa
intrigu
eliminate
contaminated
mccaffrey
innocence
counterfeit
utterly
bergman
kittridge
teschmacher
udall
##girl
ankle
isabella
cheaper
barbecue
liebkind
performan
behaving
grocery
shuffleboard
bibl
cotter
veteran
yogurt
chastity
lobster
cochrane
schumann
chronicle
territor
excessive
triplette
fugitive
townsend
currency
macleod
independence
auxiliary
szpil
incapable
september
bollocks
unnecessary
preoccupied
remotely
emmett
casanova
excalibur
infamous
miyamoto
preposter
shrubbery
typewriter
beryllium
bontecou
binoculars
bicycle
gideon
kafka
leeloo
nunez
porsche
sampson
tissue
wainwright
reincarnation
velvet
upbringing
plissken
clumsy
marijuana
scobie
monstrous
thanksgiving
trajectory
accommod
farragut
conclusions
junebug
skywalker
montgomery
szpilman
57
69
600
76
900
aston
bach
bork
cb
ching
cuss
ciera
dand
dul
dice
dres
dried
dile
dual
ei
eig
eac
ehh
ebby
foo
fert
font
fern
gurn
gild
gents
gator
geller
hh
hin
hul
hens
hides
jurek
ker
kul
kab
kaz
kross
kru
kenn
lith
lace
latch
louse
lark
lub
lins
lonel
lana
mb
ming
mow
mit
mend
mice
mumbo
ner
nim
nad
oat
ounce
ps
pm
ping
pim
pem
pak
pare
pans
pins
poof
pomp
pablo
rache
ripping
render
sq
sier
sigh
sears
tus
tumb
tipped
tippi
vot
vee
vind
vase
vatic
vlad
vista
venez
wis
wuss
wanda
xen
yor
zip
zander
zimm
zimmer
##ujah
##rum
##rup
##rings
##rants
##pu
##pa
##pone
##pool
##puss
##pany
##ived
##net
##nge
##nier
##names
##gf
##gam
##gna
##cest
##tz
##ted
##top
##tub
##hot
##het
##hra
##hel
##aug
##las
##dream
##drop
##wo
##wide
##vere
##mama
##kah
##bic
##bound
##bank
##fu
##fell
##fall
##fect
##few
##fair
##zas
##jan
##jay
##jour
##jac
##juana
##20
##ouri
thri
thorn
thail
##inople
theft
##anne
##ono
##onimo
whiff
whoop
whites
whippin
toad
toda
torah
##rect
##orius
itís
ans
ana
anom
anast
##eage
##eder
##edge
##itis
##itance
haste
weeds
##aying
##ereign
meyers
##stic
##stead
##utes
dose
dogg
doreen
inop
inquis
inquire
inaug
hex
beep
begg
##idi
##aring
##arians
goering
gozer
##gher
reel
android
##aser
##asive
##asia
shm
shes
shal
shag
shiny
shaken
##sexual
dong
donkey
donuts
##kell
##keby
##leigh
knicks
noted
notch
notices
notified
noticing
knowi
noct
noisy
##ima
stad
stack
stil
stash
stump
stashed
stumbled
lionel
lili
areas
##very
##antly
candle
##among
##illo
##illion
##illery
sollo
abide
withou
nel
getti
wante
wantin
howl
##uration
allig
allies
allright
alloy
##cture
shepher
sud
sula
sushi
hereby
asp
asc
aspect
outburst
chal
chri
chand
chunk
chlo
chels
##allister
vel
##ieu
##ieval
##ppe
##ppas
whyn
upriver
anyw
anyplace
anywa
atom
reaso
##icable
##icators
##andra
plut
plum
plag
plaster
plumber
yesss
ohm
##uns
##unity
alway
alwa
alarms
##roe
somebo
sap
savi
goodman
mann
mank
manic
manson
mankind
loft
logan
looting
gund
##geois
##igning
timid
comeback
somers
lett
talki
orb
orton
orgas
oranges
##astics
comi
como
comf
comics
willya
##endar
caus
caiman
mayonna
mayfair
dement
deanna
degr
deuce
debr
degen
deception
deja
amo
ammun
spra
spain
spac
spunk
spots
spades
sperm
spears
backed
twit
twas
twig
clea
##icker
arist
arous
armore
array
arlet
neverth
convey
conquer
contag
trout
trub
trumbo
offs
soran
sorrow
brom
jock
joad
jolly
agenda
happe
boating
bogey
quell
proce
proxim
eno
enou
enoug
hubley
coins
coats
cokes
buick
buggy
wont
pep
peps
mara
marx
rog
rok
robe
##issance
blan
bloo
blink
ungr
unload
##aka
##thand
##thos
##elin
##elash
##elujah
leas
leaks
undead
peoples
undert
underhill
leons
intra
daydream
prejud
helpmann
##feld
newly
ott
grind
grange
grouch
scur
scour
scope
scots
scroll
scores
scorp
harlem
poi
poin
popped
poppy
hog
##agara
##aggio
agains
##pless
##placed
swiss
swift
swallows
minu
minors
elit
doesnt
adren
advis
adolph
missoula
smiled
lotion
##asses
##assed
partially
homeboy
lav
lacer
monit
monroe
understandable
lifeform
actin
flop
flock
flunk
##into
##eph
phase
##cian
matin
tomorr
busines
secu
morlocks
dism
dischar
disorder
fathers
minding
seraf
##athon
showers
toni
tractor
##eye
daft
impot
##hnn
##ossal
assurance
ahem
casa
casket
##mma
meetin
sonuv
##acs
##acing
headin
schae
insin
insign
insert
insub
inscription
slot
slides
slinky
cran
criss
crud
crummy
chec
cheval
glue
glare
jackpot
readin
weekends
brew
brewer
##phor
##phemy
##ignment
paw
paj
pause
pappas
babbling
questionable
##ogast
warmed
warfare
##erto
ope
strat
strasser
acco
commend
tric
tril
triangle
editors
attent
cutest
holden
contribution
awww
persona
barf
barra
barrier
barbie
barrack
barbat
easiest
payday
payoff
menace
fami
dealin
gaw
gav
gazzo
mets
inval
invasion
surge
forgets
##ancies
stuffed
fifteenth
##lesley
preserve
geologists
##pec
reli
relat
evid
evident
evolved
hurtin
booker
apes
standin
secondary
copied
eyew
eyelash
eights
eighties
decid
decides
bulls
skid
skim
skiff
millaney
obed
obnox
simms
countdown
earp
earrings
benson
benedict
corvis
monthly
patty
shooter
fightin
milton
significant
exploring
config
depinto
##neck
calc
calendar
parson
parach
delusions
##ieri
admissions
starved
starbuck
stargher
##ussion
sample
bracken
humming
importan
rides
ridden
consig
sendin
certainty
salmon
salzburg
buyer
baff
induce
indef
burying
heartless
tai
snack
sneeze
registration
greer
##lands
grandson
grandmama
lounge
##cox
##coon
##cobar
straps
rapt
colleen
collateral
##liner
retain
retail
retards
singular
oww
curfew
fastest
winifred
walters
##ivate
blooded
concussion
hangs
hangin
hangover
incom
inclined
filter
filters
norweg
##bbing
reduced
cooler
richter
escobar
orderly
senseless
##apping
ern
musket
subl
favorites
locking
mercut
merrill
fulla
buckley
visits
testifying
rays
refres
reflex
builds
transm
transit
transform
transvest
worthwhile
classified
##zzi
##zzie
fairlane
medieval
added
addict
ballplay
ballistics
palantine
squa
throwin
teaches
banking
experiments
accidents
dupl
ducts
duchess
psyched
psychopath
informant
trent
##rooms
pasta
##ricide
honesty
hospitality
counse
topside
vox
voca
smartest
exceptional
packages
##loids
juven
coverage
luv
ella
##mingham
macho
condom
condoms
condesc
disappointing
floats
misf
mischief
misplaced
wallpap
laughin
considerate
##boards
weirdest
birdy
birmingham
valid
valued
jung
cryo
lowe
lowest
seaweed
illust
denying
sandef
eyeball
##hoven
##hobia
appreciated
doubted
pressed
reaches
growth
rockwell
striking
stripper
stricken
bustin
hopin
lyle
birthright
publisher
detected
privately
irwin
sadness
vanity
##owski
cashed
toronto
masbath
jai
jaime
germs
geronimo
greenhouse
lotsa
footstep
halle
hallelujah
advances
louisville
bombing
sails
rollo
camping
bandages
mcgruder
mcallister
mmmmmmm
##anners
miriam
##bius
excels
cyril
cylind
southwest
silo
silicon
wildlife
posted
postcard
postpone
brainerd
cowards
empath
viola
splitting
berth
woodward
shawn
loads
healing
arranging
recognition
lambs
connects
holoca
objects
objections
niagara
photon
wilkes
wilbur
wilshire
frightens
approval
kris
##ratic
##iminary
randolph
speculate
janine
males
malign
malaria
vacant
electra
jasper
hooks
antig
meaningful
roberts
tracked
melissa
difficulties
heroic
hostess
hostility
missionary
josé
langley
franco
constable
intrusion
lesion
frock
hillb
positions
oddly
roughly
marshm
traveler
dancin
rapid
pinot
pinback
porthos
booby
rosie
freaky
bala
portion
portland
##vale
supporting
kayleigh
massacre
rams
swimmin
opinions
emergencies
##uela
notebook
cracker
cracking
crackpot
devils
gaye
gayle
kirkeby
tours
tourists
arrives
arrival
wyant
wyoming
statues
banner
tijuana
fingered
fingerna
siber
tita
terminated
raban
ripe
unharmed
uranium
angles
scarf
satisfy
ignored
shhhhhh
projects
mailbox
languages
swords
sinned
sinatra
##boni
sporting
assignments
cartwright
gangster
sights
claiming
shapiro
britain
britons
approached
representation
mulholland
chaser
rhodes
shirts
accessory
expertise
bayon
encl
facilities
holler
magnet
mathieu
typing
naples
strangle
plainly
immense
canceling
canceled
katka
pumping
siren
analyst
shifts
deckard
joshua
##namon
treason
treasury
woodsboro
pinkerton
associated
cros
kuato
tuxed
sophom
coincid
sonofab
bedrooms
elevated
circumstance
communicating
telesc
haydn
clarify
experimental
negotiations
ducks
fleming
lapd
vallens
rescued
pizzas
accompan
accompany
asta
astron
tagged
whereas
injuries
briefcase
etc
ferrie
##ohl
puffs
attempting
corporation
lonnie
watson
unsure
bernard
peddle
priorities
brooks
bloke
poems
flashlight
cruz
crucial
tortured
vicky
##club
##rella
replicators
internship
shortage
shorthand
novels
stamped
critical
reconst
inventory
recommendations
includes
whistles
steaks
chambers
sparrin
flux
constantinople
bourgeois
ilia
links
##ramatic
ohhhh
sewer
casualties
palmdale
ignoring
gabrielle
measures
tassel
unaware
laurel
surgical
faintest
predicted
humiliation
lambeau
mantini
nobleman
booty
auditioning
16th
oaks
drums
drumlin
scouts
tempting
temptation
minority
vietnames
documentary
occupy
iii
razinin
sumbitch
swallowed
gorilla
hitchhi
munro
platoon
scenes
sympathize
bolts
nomak
sofie
scrape
scraps
obligation
administ
administer
5000
khan
helmuth
stubbins
monitoring
confidentiality
methodology
fathe
##bags
hemorr
neurotic
vegetarian
conceive
prosecute
swede
sweden
acceptable
assassination
vaughn
kelson
kelvin
zuul
weighs
imperial
instantly
ultra
commercials
nasal
##graph
insec
rejected
carrots
phaser
pupil
calculated
preparation
multi
toxin
nexus
neutron
bruno
perverted
controlling
sketchy
lemonade
##aaaaaaaaaaaaaaaa
aaaah
arroway
mocky
emilio
inspire
barrels
bondsman
2000
bidding
diffe
ooze
zeke
##court
leaning
retrieve
transmitter
suspicions
750
cinnamon
beethoven
hobbs
sleazy
metaphor
mercury
landlady
jawohl
panthers
shaman
sovereign
johana
corpus
additional
verdell
electronics
acquainted
acquaintance
kraut
korea
wiped
shangh
reassure
maniacs
exhibit
trauma
accusations
sanctuary
estimating
electrocuted
tsk
wuddya
yonder
nostril
braslow
crazier
inspiration
asteroid
grenade
ponies
rashid
arsonist
scalp
colleague
occasions
intellectual
thoroughly
contradict
inconvenient
consequences
molest
ratings
yikes
clicking
unlucky
resource
stranded
accounting
explorer
condemned
ordinarily
constitution
rhyme
immigration
immortal
demonstration
repeatedly
diagnosis
gilbert
rudolf
##initely
stuttering
suicidal
macaulay
bridges
enforcement
moebius
groovy
emerald
emptied
tomatoes
cyclops
tranquilizer
hypocrite
tahoe
anatomy
uptight
sausage
switzerland
embezzling
comparison
presidency
teasdale
##mobile
artificial
roadblock
peasant
crockett
masturbation
ketchup
pixilated
##ukkah
##gensen
whittlesley
dobisch
stenographer
nebula
quantum
overheated
blasphemy
##through
preliminary
hoagie
perfec
disobey
dahl
importa
beneath
infatuation
infirmary
incompet
suffocating
generosity
tampering
extraterrestrial
archdiocese
biederman
cucamong
ounces
rookie
sgt
sartorius
wrigley
yoda
abstract
neptune
outdoors
charenton
manufact
amendment
haddonfield
arbogast
caravaggio
miniatur
schneider
livelihood
barrett
declaration
admittance
burrito
grendel
sidewalk
apprentice
limousine
melodramatic
eavesdro
democrats
biblical
territorial
preposterous
dilemma
gurney
gilded
henslowe
kulok
loneliness
venezuela
thailand
anastasia
stadium
sollozzo
shepherd
chloe
chelsea
savior
orgasm
mayonnaise
ammunition
armored
arletta
nevertheless
contagious
trubshaw
pepsi
ungrateful
serafine
insubord
barbatus
indefinitely
mercutio
transvestite
sandefur
footsteps
holocaust
vietnamese
cucamonga
0h
47
43
54
53
66
79
71
7th
87
84
95
az
aer
agh
ary
apt
aint
aqu
bin
bred
batch
bord
bash
bending
cc
cen
cere
cic
cody
cider
crick
cement
dj
dome
dorn
dup
dense
delly
della
duties
eee
eel
eich
ester
fay
fas
fie
fest
fang
fey
fren
fiv
fitting
fenny
feared
flexible
gea
gel
giz
gaps
gains
gretch
hut
hone
hil
hoth
holog
hoof
hittin
hilar
huckle
ion
icy
ipo
iggy
jp
jol
jeth
jumper
kut
kop
kittle
kap
kint
kens
kla
krie
kung
keri
korda
kettle
lom
lother
lath
lina
liner
lanes
lutz
mout
muck
mash
mode
moun
moody
nip
nug
niet
nym
nilsen
og
oly
ome
pes
pum
pough
rut
ruck
rul
rated
rhin
rates
riv
rents
rushing
rival
sill
sall
sra
sist
sutton
ting
tess
tep
tents
tuts
tends
titty
tipping
tresp
uc
uz
vat
vas
vain
vast
via
voss
vows
votes
wu
wink
wri
wop
wool
wits
watt
xk
xan
yow
yay
yar
yum
yllo
yenge
zh
za
zow
zed
zee
zion
zinn
zalt
zebra
##ui
##rous
##riss
##rations
##rative
##pre
##pret
##iary
##iator
##singer
##nuts
##normal
##gm
##gren
##cin
##cas
##call
##core
##cers
##cope
##cony
##overs
##tr
##ther
##hen
##hal
##hall
##hol
##aith
##aud
##afuck
##lac
##lair
##lier
##lett
##lston
##letic
##yards
##did
##done
##dup
##wit
##wun
##wind
##worm
##witty
##vant
##vak
##vitch
##vaney
##moo
##mad
##mand
##mute
##kill
##kick
##bc
##bre
##boo
##bus
##bine
##bbe
##bach
##bons
##bru
##beth
##fin
##fly
##fel
##xy
##zai
##39
##ón
##oubted
thad
thunder
threes
youve
##erous
##ermo
##eroph
##inch
##inction
##atus
##aters
##atross
##anic
##anza
##onder
##onne
##onov
whic
whil
tole
tock
##lll
##lle
##ller
##lled
##rea
##reck
##enk
##ener
##eness
##enson
##enne
##oral
##oros
##isin
##isure
##isms
anus
anita
ancest
##edral
whateve
##eting
##etta
##itc
##itri
##itness
##itational
##omics
hag
hast
hale
haze
havi
hailing
mein
meld
mebbe
##stri
##stop
##stache
##utical
dove
dogged
doggy
inha
inhib
input
hee
heidi
bees
##arch
##arna
isley
gol
goosed
rept
reese
rewr
rewind
onboard
##lda
##ask
##ason
##asma
shak
shamp
shipped
shades
shrap
##lector
knot
knowed
noc
noel
nosy
nova
##ims
##imon
##imated
stee
stic
stans
stings
stained
forum
lig
ligh
lipp
liars
liability
waski
arent
##chn
##chon
##verb
##antha
cans
canned
##irie
soy
sole
soaked
abra
abby
abnormal
buts
justify
getty
##entric
##entenn
hows
##urg
##urst
##ads
##adda
##advant
##ricks
sung
asga
outr
outdone
chir
chil
chey
chub
chipp
##alled
##ndt
##ndown
veil
veloc
##pple
upright
upham
upstate
anyb
atm
athe
##opol
##opoly
##icans
##icism
##icrous
plaint
plasma
##unal
worthing
worsh
alw
alison
##robor
somebod
##esta
##eston
##estion
##estro
##usov
##uscript
herm
saig
frat
fron
frames
fritz
goody
##ilation
manne
manages
manhood
manuscript
loot
lobe
logging
lobot
##ively
gul
##ulars
##ulator
##igible
extern
usin
timers
seism
selection
lethal
##atement
oral
organs
##nace
##nable
##naire
##venworth
comments
willy
##oline
##olite
##olves
##olences
##olete
caul
caves
cabbie
maynard
deca
depl
deci
deird
decks
dehy
mao
mait
maura
maids
maestro
ames
amar
amity
splin
spitting
speng
backst
hadda
hiss
hisself
tweak
clam
cluster
##itte
##umby
truc
troph
trooper
offi
sorcer
everyo
bris
brod
brake
brus
brute
brouss
brumby
joints
needles
aged
agath
happend
happiest
boast
bogy
hearse
quo
quart
quittin
proverb
bette
##emore
ench
afra
gondor
mull
muld
mule
muley
muham
##berge
##berries
download
moor
coz
buggin
wonders
peer
peed
peking
maru
mari
marse
marathon
faust
faire
kille
overtime
overboard
waist
##issen
bla
blames
blushing
bleach
unn
une
unw
unident
unann
unka
unpar
unloaded
pron
prank
##akers
##aby
##elines
dru
leaf
leaking
leavenworth
bytes
undo
undies
undoubted
underp
##ptuous
##isha
##ishment
leer
leeds
leisure
hipp
hips
hiking
hippy
hijack
hippie
inte
dayton
prest
preced
longfell
helpless
evenin
rembrand
liste
nightclub
yearbook
newport
grin
gras
grudge
sci
harp
harcourt
poking
poppa
hopper
hocker
madrid
beforehand
listens
aftern
afterlife
swip
swings
greatly
cours
mineral
elm
elabor
emph
advers
adoles
missin
misses
missouri
##ipated
stuf
##irez
suppress
understatement
##izz
##izations
parting
homecoming
lau
laf
launce
monta
monopoly
realiz
realizes
peru
perse
perrier
dade
aces
##shield
##resso
##udel
fled
flam
ida
pham
phoney
pharm
phoe
placement
bush
bushes
motherf
##mans
crappy
starte
seco
moran
morrow
morons
disk
disap
disreg
disadvant
handker
##quette
##quiat
tonic
tonig
trav
traces
trapper
camels
womb
dazz
improp
impatient
impolite
##hnnn
diver
diab
diving
diction
divisions
asset
interruption
casy
caswell
casinos
##mmy
charms
charmed
funky
funboy
sonar
##aco
beas
beamed
beaches
beacon
beauh
headlines
insists
slag
slope
slump
slime
slugs
crashing
chevy
cheesy
reset
reserved
resurrection
planets
glow
glam
glance
jackets
questi
chronic
weekly
brean
##ggle
financing
puerto
questionnaire
terrace
terrence
##ogy
warped
warsaw
shoves
strader
strudel
sixt
sixpack
lively
wonderfully
probabl
repell
repro
reprie
editing
dripping
attit
cutter
christoph
composition
compulsive
aww
awwww
personals
barb
barman
barric
barging
payne
payments
sitcom
invade
worldwide
giov
surp
differences
pointless
sleepin
stuffy
openly
##lington
fift
breakthrough
geomet
geography
promin
supposedly
shuts
shutting
shutup
evans
evasion
figuring
standby
endorse
scab
scagn
decoy
fuchs
grable
rests
jezzie
goddess
skins
skippy
unti
unto
untie
millenn
millimeter
obi
obli
colossal
##ibles
countr
countess
earring
benes
bensinger
trustworthy
coral
corrobor
hungarian
patter
mileage
jimbo
lieu
complication
confine
confide
##neil
passin
passages
calriss
dreamer
##azin
##azar
##azine
delir
delac
delaney
infra
admired
admitting
cleans
airk
airlines
dinners
bobbie
##ouche
murde
samantha
brag
bragg
forgery
forgave
humility
petro
consarn
blackheart
blackjack
salieri
salazar
pullin
engl
firearm
messina
indign
indisc
indicted
indicates
burrow
burial
burgers
deter
detest
detention
terrib
##ups
gladiator
sentry
darlene
regulation
grea
greed
greent
greta
grego
watermel
bask
bases
basquiat
husbands
loui
louella
rai
raises
mik
retro
singles
uncut
choco
curl
wales
instructor
##ivated
bloodshed
incons
painless
redhead
redneck
drain
richer
esper
##soe
piec
saturn
##apple
nickie
danvers
erotic
expend
expelled
muscles
windshield
suburb
profound
profanity
merde
kev
visible
visions
extended
shallow
botherin
discrimin
radius
props
propri
propag
prophet
taped
##zza
##zzik
specialist
tyrone
meds
nause
adds
addicted
straightening
balloons
direc
smallville
squeak
squash
squaw
hosp
landy
trainee
flyin
duly
duel
popeye
##vik
##vius
informatio
mouths
batty
batting
posi
destruct
##alski
markers
penfield
quickie
feur
febru
fezzik
darker
darkest
slowed
quitter
welcom
lara
losin
juicy
luh
ells
##laughter
condo
condolences
clocks
floors
baggage
miscar
misinter
misdem
professors
blueprints
valve
costa
junction
robot
damien
dunn
dunois
dunwitty
suites
drunken
burnin
soldado
musicians
wedd
rancho
illum
denies
denny
judicial
##hof
vermont
pressuring
drugstore
macy
macneil
rocker
turley
striker
pardner
garter
strongest
bathe
bathtub
icey
motors
motels
publishing
cardi
cardiff
iram
iranoff
sadly
cashier
solving
solved
solitary
cables
amazin
involving
involves
crossroad
respects
##anov
radioactive
carlson
dangerously
jahn
digs
digit
lads
nursing
sanity
greenhill
##liere
footprints
screws
##ounce
fishin
devast
argent
boxing
locals
homic
##ova
datura
##annon
cypher
directive
casting
correl
cowan
cello
modified
moderation
violating
risking
##inois
splits
berea
berry
berries
boyfriends
buncha
efficiency
fears
hideous
rainbow
chai
chauff
sensual
sensational
objective
unfaith
codex
gaskell
wilfred
wilhel
##guer
correctly
crem
leeches
pushes
lindgren
##uctive
browns
browning
jani
janitor
janiro
bradley
braddock
draws
drawings
marriages
##uthorized
pancakes
formula
formality
meaningless
tracker
investigators
tighter
melan
slew
accounted
fielding
capabilities
conditioner
fantast
pilletti
lesions
suffers
princeton
frogs
prodig
skinner
failing
scrunch
observed
rivers
freakin
balint
balcony
portug
collected
crows
ramos
ramelle
ramón
##ronic
licensed
generator
guarded
lucille
views
bellev
belleroph
percentage
flights
havent
dya
dye
branding
galax
customary
borrowing
dumping
jacobi
treehorn
ugarte
apartm
kirby
agrees
motherfuckin
beynon
organism
banished
banzai
deact
fanatic
harmony
sioux
cockpit
terminate
bodhi
weaker
hunted
rabin
hawthorne
software
subjects
urb
##what
bonjour
ignition
mccl
mcconn
##gale
projections
switches
virginity
originals
gaming
volga
lifting
paths
##eteria
sharper
##ophren
precinct
bondage
videot
rubbed
toothbrush
sneaked
cube
ronny
poisoning
gallon
gallant
gallery
siegf
##rolled
directors
furthermore
cooperating
nutshell
kinship
shaped
appointments
approaches
mulvaney
qualities
snowing
snowball
bummed
bummer
ooops
rhym
disappears
disappearing
scripts
accessed
mutt
dispute
189
186
falcon
perso
##offs
shielding
albatross
trunks
mathew
cathedral
kilo
execute
immature
immunity
cynicism
quoting
quotes
funerals
survival
crowds
stinky
francesca
traded
sexuality
tempered
frau
grocer
pumps
renoir
shifted
blankets
barnard
douglas
hooper
battlefield
avoided
lectures
vitelli
bravely
croon
confessions
denton
cloaked
gateway
nathanael
squadron
antiques
epile
mumble
tabloids
hayse
amongst
clarissa
negotiator
variet
villain
annex
chewed
officials
dimens
hanukkah
troubling
implant
acquis
astute
lenin
candid
briefs
briefed
etiqu
panty
tailor
attempts
attempted
bulk
unsolved
unsatisf
jenzen
nedry
bangs
mosqu
pitching
racquet
chills
remarkably
universal
crib
prague
railway
hacking
librarian
institut
holidays
pornos
rags
ranks
comforting
deceive
deceiving
financially
despair
despicable
dissent
furnace
nucle
sparazza
fluid
snooping
deduct
deduction
dedicate
rackets
semester
scanning
measured
tasker
unauthorized
wickwire
blasted
fainted
kobo
koko
predic
tubbs
habitat
beefy
steamed
spills
peanuts
humiliating
deranged
literary
tigers
##balance
whacking
clinical
bootle
writings
tonsils
influenced
greeting
wintermute
bumps
deejay
teenage
revenue
foreigners
ichiro
tutor
reynard
sump
convenience
coordinate
bluffing
grammoo
structural
sacrifices
gorman
sinclair
weary
alternatives
granma
deposits
membership
kristina
bolshe
dalton
yuppie
drilling
scrawny
privileged
telegrams
bowlers
greeks
lancelot
items
athletic
bronze
interfering
recruiting
attendant
buddha
cocktails
criticism
wraps
tolerant
nevada
neuro
altar
assassins
functioning
tribunal
decorated
decorator
gravitational
ghetto
gynec
klingons
##respons
application
insects
rejection
licked
atmospher
savage
frustration
protec
prettiest
dictate
resigned
calculate
parrish
industrial
greyhound
frequently
penguins
convicts
eduardo
durden
dugan
vouched
injected
brushes
detonate
memorize
exceptionally
nikko
adjustments
cassius
cassandra
nanote
norton
rearr
sodium
chimney
bruise
consumer
sylvie
rawlston
observant
initiation
initiative
establishment
##putin
ingles
reinforce
beliefs
commodore
commodity
certificates
consciousness
baptism
boosted
3000
axe
bunks
bunker
sankara
##strong
liverpool
sequence
brothe
perpetual
perpetrator
metaphors
blackmailing
merciful
heavier
specifics
baines
caterer
elders
nudie
nudity
wrestling
mansion
manslaughter
smuggling
improved
applicant
puzzles
compensation
compromised
exploit
verdict
revealed
bambi
krauts
korean
satchel
inherited
inheritance
sprayed
enlightened
coyotes
miniature
crunching
crucify
accusation
drifter
obstruct
obstetric
expanding
romulans
cosmic
lizardo
economic
economics
rasputin
hammond
meyerling
stairwell
sugai
claremont
coconut
evacuated
restraints
patronizing
superheroes
flaemmchen
compassionate
navigation
environmental
ratted
stirred
blaze
unlocked
colleagues
espresso
merchant
merchand
hospita
hospitable
occasional
exceeded
butterfly
variation
variables
inconvenience
anticipate
hormone
lagoon
ludicrous
pusher
zorg
inquiry
heineken
##keepsie
alonzo
mayhem
quadrant
overdue
actuall
folded
transponder
saddam
toothpick
dwarfs
prosecutor
prosecution
overwhelming
bahamas
fibers
kaminski
mildred
valdes
zombie
##broken
theoretically
nobility
wholesome
somewher
deleg
laxative
intercepted
resembl
considers
negligent
observer
feminine
hallucinations
maneuvering
bicentenn
gatling
igor
lodge
nipples
oberfeld
rimgale
sizemore
loathe
seminar
spacedock
trumpet
enlisted
overheard
hassle
poached
schizophren
insomnia
deserter
jeopardize
thirtieth
transfusion
neglected
obscene
mathematics
optimistic
hypothetically
bryant
beads
bakery
cinema
eccentric
klein
patel
yvonne
reeks
cavalry
mayflowers
intolerable
perceptive
phenomen
dissect
diversion
restricted
inferior
umbrella
vengeance
oooooh
lazarus
substantial
kremlin
authentic
overreacting
category
bixler
ceti
dyslex
fetish
hanover
icky
lorenson
moustache
pankot
vapor
viznick
wichita
##copic
##beard
algeria
seizure
cafeteria
eminence
discipline
insolent
babysitter
metropolis
conservative
sniffing
filmmaker
subtl
terminator
fundamentally
boulevard
dulaney
hinkel
mbwun
pakist
sierra
vatican
inoperative
beggars
shalom
nocturn
nelson
chandler
ohmigod
somerset
spacesh
grouchy
scourge
monitored
impotent
schaefer
insinuating
chevalier
barracks
relativity
eyewitness
obnoxious
calculations
starbucks
consigliere
musketeers
sublime
refreshing
ballplayer
juvenile
wallpaper
excelsior
cylinder
antigua
marshmallow
fingernails
tuxedo
telescope
astrona
shanghai
resourceful
eavesdropping
insubordination
aryan
cricket
fennyman
gretchen
hilarious
huckleberry
kutusov
kopalski
kensington
klaatu
krieger
nugent
nymph
olymp
omega
poughkeepsie
yengeese
zapped
zowie
zinnowitz
zaltar
thadde
##arnais
shampoo
plaintiff
external
spengler
broussard
agatha
bogyman
gondorff
muhammad
unidentified
unannounced
undoubtedly
longfellow
rembrandt
elaborate
launcelot
phoebe
handkerchief
improper
beauharnais
giovann
scagnetti
millennium
oblige
calrissian
gregoire
february
misinterpret
misdeme
crossroads
unfaithful
wilhelm
bellevue
mcconnell
siegfried
rhymes
etiquette
bicentennial
